{
  "version": "1.0",
  "truncation": null,
  "padding": null,
  "added_tokens": [
    {
      "id": 0,
      "content": "<|endoftext|>",
      "single_word": false,
      "lstrip": false,
      "rstrip": false,
      "normalized": false,
      "special": true
    },
    {
      "id": 1,
      "content": "<|im_start|>",
      "single_word": false,
      "lstrip": false,
      "rstrip": false,
      "normalized": false,
      "special": true
    },
    {
      "id": 2,
      "content": "<|im_end|>",
      "single_word": false,
      "lstrip": false,
      "rstrip": false,
      "normalized": false,
      "special": true
    }
  ],
  "normalizer": null,
  "pre_tokenizer": {
    "type": "Whitespace"
  },
  "post_processor": null,
  "decoder": null,
  "model": {
    "type": "BPE",
    "dropout": null,
    "unk_token": null,
    "continuing_subword_prefix": null,
    "end_of_word_suffix": null,
    "fuse_unk": false,
    "byte_fallback": false,
    "ignore_merges": false,
    "vocab": {
      "<|endoftext|>": 0,
      "<|im_start|>": 1,
      "<|im_end|>": 2,
      "!": 3,
      "\"": 4,
      "#": 5,
      "%": 6,
      "'": 7,
      "(": 8,
      ")": 9,
      "*": 10,
      "+": 11,
      ",": 12,
      "-": 13,
      ".": 14,
      "/": 15,
      "0": 16,
      "1": 17,
      "2": 18,
      "3": 19,
      "4": 20,
      "5": 21,
      "6": 22,
      "7": 23,
      "8": 24,
      "9": 25,
      ":": 26,
      ";": 27,
      "<": 28,
      "=": 29,
      ">": 30,
      "?": 31,
      "@": 32,
      "A": 33,
      "B": 34,
      "C": 35,
      "D": 36,
      "E": 37,
      "F": 38,
      "G": 39,
      "H": 40,
      "I": 41,
      "J": 42,
      "K": 43,
      "L": 44,
      "M": 45,
      "N": 46,
      "O": 47,
      "P": 48,
      "Q": 49,
      "R": 50,
      "S": 51,
      "T": 52,
      "U": 53,
      "V": 54,
      "W": 55,
      "X": 56,
      "Y": 57,
      "[": 58,
      "\\": 59,
      "]": 60,
      "_": 61,
      "`": 62,
      "a": 63,
      "b": 64,
      "c": 65,
      "d": 66,
      "e": 67,
      "f": 68,
      "g": 69,
      "h": 70,
      "i": 71,
      "j": 72,
      "k": 73,
      "l": 74,
      "m": 75,
      "n": 76,
      "o": 77,
      "p": 78,
      "q": 79,
      "r": 80,
      "s": 81,
      "t": 82,
      "u": 83,
      "v": 84,
      "w": 85,
      "x": 86,
      "y": 87,
      "z": 88,
      "{": 89,
      "|": 90,
      "}": 91,
      "—": 92,
      "…": 93,
      "in": 94,
      "//": 95,
      "st": 96,
      "re": 97,
      "er": 98,
      "on": 99,
      "at": 100,
      "or": 101,
      "le": 102,
      "nt": 103,
      "ct": 104,
      "ou": 105,
      "str": 106,
      "ion": 107,
      "ing": 108,
      "de": 109,
      "al": 110,
      "an": 111,
      "tr": 112,
      "it": 113,
      "``": 114,
      "es": 115,
      "ent": 116,
      "mp": 117,
      "co": 118,
      "lo": 119,
      "--": 120,
      "ox": 121,
      "la": 122,
      "ate": 123,
      "to": 124,
      "int": 125,
      "ol": 126,
      "ret": 127,
      "and": 128,
      "se": 129,
      "tra": 130,
      "ining": 131,
      "ge": 132,
      "act": 133,
      "training": 134,
      "training_": 135,
      "vi": 136,
      "is": 137,
      "he": 138,
      "ab": 139,
      "ck": 140,
      "ig": 141,
      "ax": 142,
      "OR": 143,
      "us": 144,
      "AN": 145,
      "CH": 146,
      "ANCH": 147,
      "ANCHOR": 148,
      "ty": 149,
      "ar": 150,
      "pe": 151,
      "Vox": 152,
      "as": 153,
      "```": 154,
      "fn": 155,
      "ax_": 156,
      "ory": 157,
      "mple": 158,
      "ous": 159,
      "->": 160,
      "ro": 161,
      "revi": 162,
      "revious": 163,
      "ur": 164,
      "id": 165,
      "uct": 166,
      "ack": 167,
      "lay": 168,
      "val": 169,
      "ex": 170,
      "ample": 171,
      "low": 172,
      "struct": 173,
      "---": 174,
      "ount": 175,
      "Previous": 176,
      "ser": 177,
      "code": 178,
      "actor": 179,
      "ht": 180,
      "am": 181,
      "stack": 182,
      "ad": 183,
      "type": 184,
      "the": 185,
      "lt": 186,
      "iv": 187,
      "ers": 188,
      "ror": 189,
      "()": 190,
      "able": 191,
      "vent": 192,
      "26": 193,
      "sy": 194,
      "ue": 195,
      "ess": 196,
      "valid": 197,
      "con": 198,
      "ch": 199,
      "el": 200,
      "cp": 201,
      "pro": 202,
      "vox": 203,
      "ind": 204,
      "ri": 205,
      "un": 206,
      "ult": 207,
      "mcp": 208,
      "out": 209,
      "atus": 210,
      "ed": 211,
      "max_": 212,
      "max_stack": 213,
      "synt": 214,
      "(\"": 215,
      "true": 216,
      "EN": 217,
      "_EN": 218,
      "ANCHOR_EN": 219,
      "ANCHOR_END": 220,
      "den": 221,
      "gol": 222,
      "golden": 223,
      "sc": 224,
      "ventory": 225,
      "In": 226,
      "fi": 227,
      "status": 228,
      "erge": 229,
      "ap": 230,
      "ation": 231,
      ").": 232,
      "qu": 233,
      "ment": 234,
      "ot": 235,
      "example": 236,
      "pt": 237,
      "ated": 238,
      "for": 239,
      "kind": 240,
      "Er": 241,
      "res": 242,
      "table": 243,
      "Error": 244,
      "scri": 245,
      "script": 246,
      "if": 247,
      "wor": 248,
      "ery": 249,
      "ction": 250,
      "ight": 251,
      "ib": 252,
      "20": 253,
      "db": 254,
      "en": 255,
      "il": 256,
      "we": 257,
      "cate": 258,
      "dis": 259,
      "query": 260,
      "ible": 261,
      "up": 262,
      "Wr": 263,
      "Res": 264,
      "weight": 265,
      "st_": 266,
      "ce": 267,
      "layer": 268,
      "Result": 269,
      "descript": 270,
      "rout": 271,
      "flow": 272,
      "2026": 273,
      "structs": 274,
      "validated": 275,
      "vers": 276,
      "gory": 277,
      "tit": 278,
      "last_": 279,
      "training_el": 280,
      "training_weight": 281,
      "igible": 282,
      "ax_vers": 283,
      "constructs": 284,
      "syntax_vers": 285,
      "category": 286,
      "description": 287,
      "title": 288,
      "last_validated": 289,
      "training_eligible": 290,
      "syntax_version": 291,
      "fun": 292,
      "ame": 293,
      "activ": 294,
      "ut": 295,
      "struction": 296,
      "comp": 297,
      "instruction": 298,
      "ollow": 299,
      "Follow": 300,
      "ity": 301,
      "ite": 302,
      "po": 303,
      "ask": 304,
      "_layer": 305,
      "mpt": 306,
      "training_pro": 307,
      "training_prompt": 308,
      "play": 309,
      "display": 310,
      "work": 311,
      "Write": 312,
      "led": 313,
      "age": 314,
      "Inventory": 315,
      "wit": 316,
      "with": 317,
      "hand": 318,
      "\")": 319,
      "cal": 320,
      "li": 321,
      "tal": 322,
      "not": 323,
      "Ad": 324,
      "total": 325,
      "tool": 326,
      "Add": 327,
      "function": 328,
      "ard": 329,
      "workflow": 330,
      "Ex": 331,
      "mat": 332,
      "let": 333,
      "dat": 334,
      "match": 335,
      "Example": 336,
      "03": 337,
      "file": 338,
      "bo": 339,
      "merge": 340,
      "cur": 341,
      "Re": 342,
      "ase": 343,
      "_c": 344,
      "ure": 345,
      "load": 346,
      "handl": 347,
      "ew": 348,
      "pa": 349,
      "User": 350,
      "cap": 351,
      "De": 352,
      "com": 353,
      "tp": 354,
      "http": 355,
      "curre": 356,
      "Ap": 357,
      "our": 358,
      "name": 359,
      "mut": 360,
      "Task": 361,
      "mutation": 362,
      "qty": 363,
      "routes": 364,
      "th": 365,
      "ine": 366,
      "amount": 367,
      "abil": 368,
      "ms": 369,
      "capabil": 370,
      "pat": 371,
      "called": 372,
      "set": 373,
      "ash": 374,
      "AD": 375,
      "ADT": 376,
      "current": 377,
      ":\"": 378,
      "onent": 379,
      "path": 380,
      "ag": 381,
      "component": 382,
      "mo": 383,
      "state": 384,
      "App": 385,
      "St": 386,
      "fig": 387,
      "ic": 388,
      "ource": 389,
      "par": 390,
      "pose": 391,
      "ession": 392,
      ".\"": 393,
      "Count": 394,
      "using": 395,
      "im": 396,
      "read": 397,
      ").\"": 398,
      "land": 399,
      "err": 400,
      "island": 401,
      "urn": 402,
      "return": 403,
      "sett": 404,
      "abase": 405,
      "len": 406,
      "</": 407,
      "error": 408,
      "active": 409,
      "core": 410,
      "essage": 411,
      "ken": 412,
      "nc": 413,
      "Cre": 414,
      "Create": 415,
      "_b": 416,
      "data": 417,
      "Merge": 418,
      "sh": 419,
      "et": 420,
      "Ok": 421,
      "capability": 422,
      "exp": 423,
      "activity": 424,
      "nd": 425,
      "ste": 426,
      "cess": 427,
      "Dat": 428,
      "yload": 429,
      "payload": 430,
      "Counter": 431,
      "imal": 432,
      "inimal": 433,
      "pl": 434,
      "board": 435,
      "ashboard": 436,
      "all": 437,
      "view": 438,
      "fine": 439,
      "({": 440,
      "resource": 441,
      "Act": 442,
      "ial": 443,
      "Define": 444,
      "Actor": 445,
      "ail": 446,
      "handler": 447,
      "char": 448,
      "form": 449,
      "imp": 450,
      "inventory": 451,
      "iz": 452,
      "))": 453,
      "ccess": 454,
      "do": 455,
      "<=": 456,
      "Con": 457,
      "je": 458,
      "result": 459,
      "count": 460,
      "Message": 461,
      "Su": 462,
      "TaskMessage": 463,
      "get": 464,
      "one": 465,
      "ncy": 466,
      "Success": 467,
      "_s": 468,
      "_count": 469,
      "_a": 470,
      "user": 471,
      "est": 472,
      "sing": 473,
      "div": 474,
      "route": 475,
      "\"/": 476,
      "AppResult": 477,
      "blo": 478,
      "ort": 479,
      "late": 480,
      "charge": 481,
      "fa": 482,
      "che": 483,
      "ailure": 484,
      "Dashboard": 485,
      "ist": 486,
      "cre": 487,
      "of": 488,
      "ok": 489,
      "hel": 490,
      "syntax": 491,
      "**": 492,
      "previous": 493,
      "lter": 494,
      "filter": 495,
      "\",": 496,
      "[@": 497,
      "um": 498,
      "incom": 499,
      "incoming": 500,
      "mit": 501,
      "ializ": 502,
      "bool": 503,
      "parser": 504,
      "://": 505,
      "ow": 506,
      "serializ": 507,
      "cla": 508,
      "CP": 509,
      "MCP": 510,
      "sert": 511,
      "_merge": 512,
      "mar": 513,
      "Failure": 514,
      "mcp_": 515,
      "that": 516,
      "br": 517,
      "_card": 518,
      "charge_card": 519,
      "minimal": 520,
      "laining": 521,
      "handling": 522,
      "explaining": 523,
      "Config": 524,
      "ject": 525,
      "Ro": 526,
      "setta": 527,
      "Rosetta": 528,
      "\"</": 529,
      ">\"": 530,
      "crement": 531,
      "pan": 532,
      "insert": 533,
      "database": 534,
      "ve": 535,
      "span": 536,
      "import": 537,
      "task": 538,
      "Ag": 539,
      "yet": 540,
      "this": 541,
      "pers": 542,
      "Agent": 543,
      "ive": 544,
      "ly": 545,
      "\").": 546,
      "msg": 547,
      "ncyms": 548,
      "latencyms": 549,
      "_and": 550,
      "block": 551,
      "bro": 552,
      "Vi": 553,
      "h1": 554,
      "ix": 555,
      "MergeError": 556,
      "View": 557,
      "del": 558,
      "Event": 559,
      "Fix": 560,
      "broken": 561,
      "Read": 562,
      "Session": 563,
      "SessionEvent": 564,
      "config": 565,
      "log": 566,
      "ies": 567,
      "ui": 568,
      "ma": 569,
      "pri": 570,
      "trade": 571,
      "_user": 572,
      "token": 573,
      "reser": 574,
      "ckout": 575,
      "stem": 576,
      "atform": 577,
      "reserve": 578,
      "_se": 579,
      "04": 580,
      "sha": 581,
      "urable": 582,
      "ke": 583,
      "issing": 584,
      "doc": 585,
      "agent": 586,
      "ide": 587,
      "_file": 588,
      "Invalid": 589,
      "read_file": 590,
      "abaseConfig": 591,
      "DatabaseConfig": 592,
      "whe": 593,
      "shape": 594,
      "Data": 595,
      "invalid": 596,
      "ss": 597,
      "sur": 598,
      "bra": 599,
      "where": 600,
      "InventoryActor": 601,
      "base": 602,
      "per": 603,
      "ound": 604,
      "())": 605,
      "union": 606,
      "kind_b": 607,
      "kind_a": 608,
      "InventorySt": 609,
      "lied": 610,
      "Reject": 611,
      "Applied": 612,
      "InventoryStack": 613,
      "Rejected": 614,
      "ical": 615,
      "mplement": 616,
      "limit": 617,
      "ts": 618,
      "ver": 619,
      "_ur": 620,
      "string": 621,
      "plo": 622,
      "spa": 623,
      "wn": 624,
      "ploy": 625,
      "session": 626,
      "can": 627,
      "strat": 628,
      "persist": 629,
      "Wor": 630,
      "Work": 631,
      "serialize": 632,
      "spawn": 633,
      "step": 634,
      "be": 635,
      "plus": 636,
      "key": 637,
      "main": 638,
      "Implement": 639,
      "hello": 640,
      "ations": 641,
      "sum": 642,
      "mon": 643,
      "class": 644,
      "UI": 645,
      "Name": 646,
      "ord": 647,
      "word": 648,
      "keyword": 649,
      "returns": 650,
      "ant": 651,
      "ient": 652,
      "Ready": 653,
      "ld": 654,
      "Hand": 655,
      "pes": 656,
      "})": 657,
      "}))": 658,
      "seed": 659,
      "tx": 660,
      "typed": 661,
      "checkout": 662,
      "increment": 663,
      "orient": 664,
      "rom": 665,
      "oriented": 666,
      "valu": 667,
      "else": 668,
      "comment": 669,
      "durable": 670,
      "types": 671,
      "Mo": 672,
      "ants": 673,
      "ong": 674,
      "cent": 675,
      "notes": 676,
      "app": 677,
      "Model": 678,
      "pel": 679,
      "row": 680,
      "surfa": 681,
      "propose": 682,
      "from": 683,
      "values": 684,
      "ron": 685,
      "pur": 686,
      "purpose": 687,
      "_re": 688,
      "ities": 689,
      "\"+": 690,
      "\":\"": 691,
      "Met": 692,
      "_token": 693,
      "lots": 694,
      "layers": 695,
      "actor_layer": 696,
      "mcp_layer": 697,
      "InventoryView": 698,
      "workflow_layer": 699,
      "ashMet": 700,
      "StashMet": 701,
      "capability_layer": 702,
      "capability_token": 703,
      "platform": 704,
      "_slots": 705,
      "ui_layer": 706,
      "reserve_slots": 707,
      "propose_merge": 708,
      "StashMeter": 709,
      "ured": 710,
      "wh": 711,
      "primar": 712,
      "\\\"": 713,
      "over": 714,
      "=\"": 715,
      "06": 716,
      "run": 717,
      "primary": 718,
      "overflow": 719,
      "Minimal": 720,
      "handle": 721,
      "ence": 722,
      "value": 723,
      "Missing": 724,
      "add": 725,
      "capabilities": 726,
      "logic": 727,
      "iled": 728,
      "gr": 729,
      "viron": 730,
      "Wrong": 731,
      "persistence": 732,
      "vironment": 733,
      "use": 734,
      "ang": 735,
      "are": 736,
      "ested": 737,
      "message": 738,
      "di": 739,
      "\">": 740,
      "Cap": 741,
      "Kind": 742,
      "Out": 743,
      "_stack": 744,
      "pure": 745,
      "ison": 746,
      "arison": 747,
      "table_layer": 748,
      "environment": 749,
      "comparison": 750,
      "file_ur": 751,
      "come": 752,
      "qty_b": 753,
      "qty_a": 754,
      "MergeOut": 755,
      "_and_merge": 756,
      "InvalidCap": 757,
      "types_and_merge": 758,
      "WrongKind": 759,
      "file_uri": 760,
      "MergeOutcome": 761,
      "oper": 762,
      "so": 763,
      "lect": 764,
      "select": 765,
      "order": 766,
      "prod": 767,
      "ployment": 768,
      "Ms": 769,
      "gram": 770,
      "==": 771,
      "them": 772,
      "payloads": 773,
      "does": 774,
      "what": 775,
      "live": 776,
      "pr": 777,
      "sco": 778,
      "sync": 779,
      "system": 780,
      "_by": 781,
      "sessionid": 782,
      "rows": 783,
      "order_by": 784,
      "scope": 785,
      "ari": 786,
      "only": 787,
      "Str": 788,
      "ipel": 789,
      "ru": 790,
      "erAgent": 791,
      "leTask": 792,
      "WorkerAgent": 793,
      "HandleTask": 794,
      "Struct": 795,
      "ipeline": 796,
      "list": 797,
      "ready": 798,
      "Now": 799,
      "demo": 800,
      "80": 801,
      "docstring": 802,
      "print": 803,
      "vari": 804,
      "test": 805,
      "surface": 806,
      "/>": 807,
      "=[": 808,
      "Pipeline": 809,
      "_result": 810,
      "_agent": 811,
      "_ready": 812,
      "done": 813,
      "expose": 814,
      "data_agent": 815,
      "className": 816,
      "Msg": 817,
      "grammar": 818,
      "Structured": 819,
      "data_agent_ready": 820,
      "_actor": 821,
      "bas": 822,
      "ic_actor": 823,
      "_and_se": 824,
      "spawn_and_se": 825,
      "basic_actor": 826,
      "spawn_and_send": 827,
      "std": 828,
      "CounterActor": 829,
      "Hel": 830,
      "Page": 831,
      "Hello": 832,
      "ces": 833,
      "ged": 834,
      "ress": 835,
      "orche": 836,
      "api": 837,
      "functions": 838,
      "me": 839,
      "ext": 840,
      "pla": 841,
      "`@": 842,
      "side": 843,
      "blocks": 844,
      "`).": 845,
      "_f": 846,
      "v0": 847,
      "ould": 848,
      "should": 849,
      "00": 850,
      "art": 851,
      "variants": 852,
      "operations": 853,
      "strator": 854,
      "orchestrator": 855,
      "')": 856,
      "clo": 857,
      "brace": 858,
      "closing": 859,
      "Ch": 860,
      "ions": 861,
      "find": 862,
      "man": 863,
      "ages": 864,
      ".*": 865,
      "Table": 866,
      "end": 867,
      "Ty": 868,
      "parse": 869,
      "_config": 870,
      "stag": 871,
      "mcp_tool": 872,
      "mcp_resource": 873,
      "orchestrator_config": 874,
      "staging": 875,
      "tag": 876,
      "tagged": 877,
      "mod": 878,
      "eld": 879,
      "field": 880,
      "Status": 881,
      "DashboardStatus": 882,
      "based": 883,
      "nested": 884,
      "fal": 885,
      "false": 886,
      "strate": 887,
      "Demon": 888,
      "dashboard": 889,
      "DashboardView": 890,
      "DataCh": 891,
      "DataChart": 892,
      "ter": 893,
      "ded": 894,
      "25": 895,
      "CR": 896,
      "Cru": 897,
      "UD": 898,
      "Un": 899,
      "ule": 900,
      "onical": 901,
      "users": 902,
      "Api": 903,
      "active_user": 904,
      "user_count": 905,
      "canonical": 906,
      "seed_user": 907,
      "module": 908,
      "CRUD": 909,
      "Crud": 910,
      "Unit": 911,
      "active_user_count": 912,
      "see": 913,
      "init": 914,
      "num": 915,
      "trait": 916,
      "mode": 917,
      "mount": 918,
      "parame": 919,
      "Type": 920,
      "gebra": 921,
      "Increment": 922,
      "load_se": 923,
      "impl": 924,
      "gebraic": 925,
      "load_section": 926,
      "Al": 927,
      "cing": 928,
      "serialization": 929,
      "express": 930,
      "HT": 931,
      "},": 932,
      "retr": 933,
      "ives": 934,
      "\"/\"": 935,
      "by": 936,
      "import_": 937,
      "Demonstrate": 938,
      "pend": 939,
      "not_f": 940,
      "loader": 941,
      "pending": 942,
      "not_found": 943,
      "Sy": 944,
      "_app": 945,
      "serialize_app": 946,
      "Algebraic": 947,
      "System": 948,
      "serialize_app_result": 949,
      "js": 950,
      "fu": 951,
      "cli": 952,
      "ome": 953,
      "model": 954,
      "TP": 955,
      "`.": 956,
      "HTTP": 957,
      "`,": 958,
      "source": 959,
      "ument": 960,
      "The": 961,
      "(`": 962,
      "cho": 963,
      "mitives": 964,
      "primitives": 965,
      "que": 966,
      "document": 967,
      "lic": 968,
      "initial": 969,
      "how": 970,
      "ative": 971,
      "wr": 972,
      "score": 973,
      "very": 974,
      "tests": 975,
      "ll": 976,
      "expo": 977,
      "expos": 978,
      "quest": 979,
      "lang": 980,
      "uage": 981,
      "decla": 982,
      "language": 983,
      "demon": 984,
      "ify": 985,
      "Pro": 986,
      "no": 987,
      "loot": 988,
      "concurre": 989,
      "facing": 990,
      "concurrency": 991,
      "missing": 992,
      "tools": 993,
      "retry": 994,
      "ft": 995,
      "declar": 996,
      "UR": 997,
      "mpot": 998,
      "idempot": 999,
      "To": 1000,
      "strating": 1001,
      "demonstrating": 1002,
      "but": 1003,
      "own": 1004,
      "\"\"": 1005,
      "\"}": 1006,
      "),": 1007,
      ">{": 1008,
      "Pl": 1009,
      "_ok": 1010,
      "_trade": 1011,
      "gated": 1012,
      "sv": 1013,
      "redi": 1014,
      "le_trade": 1015,
      "compact": 1016,
      "Request": 1017,
      "_csv": 1018,
      "settled": 1019,
      "settle_trade": 1020,
      "MergeRequest": 1021,
      "failed": 1022,
      "imported": 1023,
      "reserve_ok": 1024,
      "\"+\"": 1025,
      "import_loot": 1026,
      "exposure": 1027,
      "Propose": 1028,
      "\"}</": 1029,
      ">{\"": 1030,
      "Platform": 1031,
      "import_loot_csv": 1032,
      "event": 1033,
      "ore": 1034,
      "ug": 1035,
      "cont": 1036,
      "disco": 1037,
      "ources": 1038,
      "12": 1039,
      "right": 1040,
      "agement": 1041,
      "management": 1042,
      "plan": 1043,
      "hy": 1044,
      "Th": 1045,
      "yle": 1046,
      "style": 1047,
      "resources": 1048,
      "GE": 1049,
      "Not": 1050,
      "atic": 1051,
      "left": 1052,
      "enable": 1053,
      "URI": 1054,
      "discovery": 1055,
      "deployment": 1056,
      "Se": 1057,
      "shown": 1058,
      "documentation": 1059,
      "IR": 1060,
      "aining": 1061,
      "bject": 1062,
      "eq": 1063,
      "gt": 1064,
      "object": 1065,
      "pack": 1066,
      "chaining": 1067,
      "proje": 1068,
      "brid": 1069,
      "redicate": 1070,
      "This": 1071,
      "projection": 1072,
      "process": 1073,
      "!=": 1074,
      "\"@": 1075,
      "Core": 1076,
      "Echo": 1077,
      "Mcp": 1078,
      "Show": 1079,
      "_status": 1080,
      "ents": 1081,
      "ols": 1082,
      "cking": 1083,
      "stack_count": 1084,
      "golden_status": 1085,
      "disk": 1086,
      "merge_stack": 1087,
      "Static": 1088,
      "errors": 1089,
      "blob": 1090,
      "://\"": 1091,
      "mcp_golden_status": 1092,
      "Reads": 1093,
      "logical": 1094,
      "seed_stack": 1095,
      "demos": 1096,
      "seeded": 1097,
      "declarations": 1098,
      "Tools": 1099,
      "contents": 1100,
      "merge_stacks": 1101,
      "lib": 1102,
      "Rep": 1103,
      "helpers": 1104,
      "ton": 1105,
      "forms": 1106,
      "resent": 1107,
      "ize": 1108,
      "shaped": 1109,
      "plain": 1110,
      "button": 1111,
      "ose": 1112,
      "50": 1113,
      "DB": 1114,
      "Native": 1115,
      "Predicate": 1116,
      "hot": 1117,
      "pu": 1118,
      "}).": 1119,
      "desc": 1120,
      "(),": 1121,
      "().": 1122,
      "examples": 1123,
      "popu": 1124,
      "essions": 1125,
      "_sessions": 1126,
      "events": 1127,
      "hybrid": 1128,
      "hot_sessions": 1129,
      "populi": 1130,
      "role": 1131,
      "post": 1132,
      "Rout": 1133,
      "Route": 1134,
      "_de": 1135,
      "_database": 1136,
      "_enable": 1137,
      "a_count": 1138,
      "bug": 1139,
      "io": 1140,
      "ps": 1141,
      "plic": 1142,
      "ql": 1143,
      "sample": 1144,
      "sql": 1145,
      "tur": 1146,
      "ings": 1147,
      "ol_s": 1148,
      "url": 1149,
      "pool_s": 1150,
      "Deploy": 1151,
      "Deployment": 1152,
      "settings": 1153,
      "_url": 1154,
      "_replic": 1155,
      "prod_de": 1156,
      "prod_replic": 1157,
      "libsql": 1158,
      "Represent": 1159,
      "_database_url": 1160,
      "_enabled": 1161,
      "bug_enabled": 1162,
      "sample_database_url": 1163,
      "turso": 1164,
      "pool_size": 1165,
      "prod_debug_enabled": 1166,
      "prod_replica_count": 1167,
      "tw": 1168,
      "_at": 1169,
      "ated_at": 1170,
      "node": 1171,
      "counter": 1172,
      "Workflow": 1173,
      "parameter": 1174,
      ">=": 1175,
      "ping": 1176,
      "lar": 1177,
      "Found": 1178,
      "Home": 1179,
      "Pend": 1180,
      "section": 1181,
      "ErrorPage": 1182,
      "loading": 1183,
      "NotFound": 1184,
      "Section": 1185,
      "RoutePend": 1186,
      "NotFoundPage": 1187,
      "RoutePending": 1188,
      "rest": 1189,
      "ST": 1190,
      "two": 1191,
      "mes": 1192,
      "inte": 1193,
      "world": 1194,
      "compose": 1195,
      "idempotent": 1196,
      "mesh": 1197,
      "lett": 1198,
      "large": 1199,
      "page": 1200,
      "requ": 1201,
      "AI": 1202,
      "red": 1203,
      "ulate": 1204,
      "anges": 1205,
      "integ": 1206,
      "!\"": 1207,
      "\"!\"": 1208,
      "100": 1209,
      "24": 1210,
      "Amount": 1211,
      "Che": 1212,
      "Durable": 1213,
      "Fa": 1214,
      "_12": 1215,
      "next": 1216,
      "ator": 1217,
      "too": 1218,
      "ass": 1219,
      "worker": 1220,
      "tx_12": 1221,
      "packages": 1222,
      "1000": 1223,
      "Checkout": 1224,
      "Failed": 1225,
      "tx_123": 1226,
      "cond": 1227,
      "box": 1228,
      "sed": 1229,
      "changes": 1230,
      "\"]": 1231,
      "22": 1232,
      "AGE": 1233,
      "Cal": 1234,
      "[\"": 1235,
      "_notes": 1236,
      "culate": 1237,
      "pine": 1238,
      "recent": 1239,
      "alpine": 1240,
      "env": 1241,
      "note": 1242,
      "curl": 1243,
      "Recent": 1244,
      "get_re": 1245,
      "hell": 1246,
      "cent_notes": 1247,
      "8080": 1248,
      "full": 1249,
      "STAGE": 1250,
      "integers": 1251,
      "Calculate": 1252,
      "get_recent_notes": 1253,
      "Lo": 1254,
      "Ui": 1255,
      "`->": 1256,
      "`).\"": 1257,
      "mail": 1258,
      "gen": 1259,
      "ading": 1260,
      "props": 1261,
      "chart": 1262,
      "jsx": 1263,
      "client": 1264,
      "Loading": 1265,
      "`->`).\"": 1266,
      "mailbox": 1267,
      "cor": 1268,
      "annot": 1269,
      "back": 1270,
      "dex": 1271,
      "ition": 1272,
      "inter": 1273,
      "mess": 1274,
      "wrap": 1275,
      "messages": 1276,
      "gu": 1277,
      "you": 1278,
      "guard": 1279,
      "cord": 1280,
      "hist": 1281,
      "ores": 1282,
      "reset": 1283,
      "record": 1284,
      "atible": 1285,
      "tracking": 1286,
      "compatible": 1287,
      "istants": 1288,
      "off": 1289,
      "persistent": 1290,
      "restores": 1291,
      "assistants": 1292,
      "history": 1293,
      "records": 1294,
      "bound": 1295,
      "ied": 1296,
      "text": 1297,
      "index": 1298,
      "condition": 1299,
      "pol": 1300,
      "inside": 1301,
      "_score": 1302,
      "classify": 1303,
      "place": 1304,
      "classify_score": 1305,
      "boundar": 1306,
      "point": 1307,
      "expressions": 1308,
      "put": 1309,
      "wrapper": 1310,
      "cn": 1311,
      "adcn": 1312,
      "polic": 1313,
      "ler": 1314,
      "pas": 1315,
      "Concurrent": 1316,
      "Handler": 1317,
      "increments": 1318,
      "parsed": 1319,
      "passed": 1320,
      "ile": 1321,
      "rect": 1322,
      "decor": 1323,
      "decorator": 1324,
      "der": 1325,
      ":\\\"": 1326,
      "_text": 1327,
      "als": 1328,
      "st_js": 1329,
      "post_js": 1330,
      "https": 1331,
      "get_text": 1332,
      "surcharge": 1333,
      "\\\":\\\"": 1334,
      "parse_": 1335,
      "posted": 1336,
      "conditionals": 1337,
      "post_json": 1338,
      ":**": 1339,
      "pre": 1340,
      "ates": 1341,
      "most": 1342,
      "ub": 1343,
      "stub": 1344,
      "quer": 1345,
      "click": 1346,
      "annotation": 1347,
      "iss": 1348,
      "endpoint": 1349,
      "If": 1350,
      "input": 1351,
      "validation": 1352,
      "rate": 1353,
      "ters": 1354,
      "ust": 1355,
      "parameters": 1356,
      "tim": 1357,
      "You": 1358,
      "fe": 1359,
      "nam": 1360,
      "sm": 1361,
      "={": 1362,
      "ifest": 1363,
      "ens": 1364,
      "manifest": 1365,
      "map": 1366,
      "your": 1367,
      "via": 1368,
      "gin": 1369,
      "tern": 1370,
      "gener": 1371,
      "frequ": 1372,
      "ently": 1373,
      "server": 1374,
      "frequently": 1375,
      "into": 1376,
      "fields": 1377,
      "cle": 1378,
      "hema": 1379,
      "schema": 1380,
      "LL": 1381,
      "We": 1382,
      "bile": 1383,
      "}>\"": 1384,
      "lement": 1385,
      "cove": 1386,
      "routing": 1387,
      "mobile": 1388,
      "covered": 1389,
      "gion": 1390,
      "abuse": 1391,
      "pen": 1392,
      "fic": 1393,
      "descriptive": 1394,
      "pagin": 1395,
      "http_result": 1396,
      "filtering": 1397,
      "limiting": 1398,
      "_region": 1399,
      "offset": 1400,
      "prevent": 1401,
      "pagination": 1402,
      "http_result_region": 1403,
      "def": 1404,
      "amp": 1405,
      "dated_at": 1406,
      "uses": 1407,
      "updated_at": 1408,
      "estamp": 1409,
      "created_at": 1410,
      "queried": 1411,
      "timestamp": 1412,
      "ire": 1413,
      "07": 1414,
      "Nested": 1415,
      "_routes": 1416,
      "ait": 1417,
      "home": 1418,
      "nf": 1419,
      "sa": 1420,
      "wait": 1421,
      "ely": 1422,
      "surfaces": 1423,
      "nested_routes": 1424,
      "retryable": 1425,
      "fullstack": 1426,
      "boundaries": 1427,
      "small": 1428,
      "clean": 1429,
      "Web": 1430,
      "Use": 1431,
      "ires": 1432,
      "ses": 1433,
      "ans": 1434,
      "shadcn": 1435,
      "write": 1436,
      "Miss": 1437,
      "pelled": 1438,
      "Misspelled": 1439,
      "bin": 1440,
      "pattern": 1441,
      "Element": 1442,
      "direct": 1443,
      "paths": 1444,
      "policies": 1445,
      "cleanup": 1446,
      "Shell": 1447,
      "ip": 1448,
      "shell": 1449,
      "trans": 1450,
      "is_": 1451,
      "fication": 1452,
      "inf": 1453,
      "arrow": 1454,
      "ful": 1455,
      "wil": 1456,
      "named": 1457,
      "ble": 1458,
      "ec": 1459,
      "mapp": 1460,
      "}\"</": 1461,
      "modi": 1462,
      "LLM": 1463,
      "mapping": 1464,
      "modification": 1465,
      "13": 1466,
      "Narrow": 1467,
      "dot": 1468,
      "ted": 1469,
      "comple": 1470,
      "dotted": 1471,
      "access": 1472,
      "min": 1473,
      "vel": 1474,
      "level": 1475,
      "ident": 1476,
      "ging": 1477,
      "hol": 1478,
      "port": 1479,
      "fely": 1480,
      "ath": 1481,
      "ating": 1482,
      "structured": 1483,
      "safely": 1484,
      "..": 1485,
      "te": 1486,
      "without": 1487,
      "returning": 1488,
      "directly": 1489,
      "transact": 1490,
      "ntim": 1491,
      "runtim": 1492,
      "runtime": 1493,
      "\"{": 1494,
      "10": 1495,
      "15": 1496,
      "32": 1497,
      "70": 1498,
      "90": 1499,
      "El": 1500,
      "Flow": 1501,
      "\\\",": 1502,
      "_co": 1503,
      "_name": 1504,
      "_level": 1505,
      "gment": 1506,
      "nal": 1507,
      "press": 1508,
      "sus": 1509,
      "same": 1510,
      "}\"": 1511,
      "org": 1512,
      "des": 1513,
      "alth": 1514,
      "trol": 1515,
      "its": 1516,
      "itor": 1517,
      "segment": 1518,
      "health": 1519,
      "admin": 1520,
      "valid_user": 1521,
      "editor": 1522,
      "quires": 1523,
      "Express": 1524,
      "Requires": 1525,
      "httpbin": 1526,
      "ship": 1527,
      "Control": 1528,
      "clauses": 1529,
      "\\\"}\"": 1530,
      "import_path": 1531,
      "ping_co": 1532,
      "parse_ident": 1533,
      "parse_import_path": 1534,
      "pended": 1535,
      "patterns": 1536,
      "is_valid_user": 1537,
      "info": 1538,
      "access_level": 1539,
      "\"{\\\"": 1540,
      "Else": 1541,
      "\\\",\\\"": 1542,
      "suspended": 1543,
      "Expressions": 1544,
      "shipping_co": 1545,
      "parse_ident_name": 1546,
      "is_valid_username": 1547,
      "shipping_cost": 1548,
      "spe": 1549,
      "iler": 1550,
      "compiler": 1551,
      "React": 1552,
      "Par": 1553,
      "aut": 1554,
      "cro": 1555,
      "ffe": 1556,
      "sup": 1557,
      "export": 1558,
      "ally": 1559,
      "will": 1560,
      "cross": 1561,
      "ffect": 1562,
      "support": 1563,
      "exec": 1564,
      "ived": 1565,
      "derived": 1566,
      "execut": 1567,
      "Source": 1568,
      "rol": 1569,
      "ped": 1570,
      "enc": 1571,
      "islands": 1572,
      "checking": 1573,
      "explic": 1574,
      "explicit": 1575,
      "ne": 1576,
      "web": 1577,
      "notify": 1578,
      "cl": 1579,
      "fail": 1580,
      "ined": 1581,
      "like": 1582,
      "require": 1583,
      "spec": 1584,
      ":`": 1585,
      "across": 1586,
      "om": 1587,
      "inst": 1588,
      "ref": 1589,
      "ically": 1590,
      "Path": 1591,
      "bare": 1592,
      "hor": 1593,
      "codegen": 1594,
      "used": 1595,
      "placehol": 1596,
      "author": 1597,
      "SX": 1598,
      "bel": 1599,
      "dou": 1600,
      "echo": 1601,
      "failure": 1602,
      "h2": 1603,
      "lback": 1604,
      "pong": 1605,
      "///": 1606,
      "label": 1607,
      "tracing": 1608,
      "():": 1609,
      "compens": 1610,
      "onential": 1611,
      "exponential": 1612,
      "logging": 1613,
      "_failure": 1614,
      "mounted": 1615,
      "retried": 1616,
      "idempotenc": 1617,
      "GET": 1618,
      "backoff": 1619,
      "policy": 1620,
      "mapped": 1621,
      "transactions": 1622,
      "rollback": 1623,
      "double": 1624,
      "compensating": 1625,
      "idempotency": 1626,
      "mapped_failure": 1627,
      "ir": 1628,
      "Rust": 1629,
      "ach": 1630,
      "cker": 1631,
      "boundary": 1632,
      "generates": 1633,
      "An": 1634,
      "For": 1635,
      "au": 1636,
      "cr": 1637,
      "effect": 1638,
      "tomat": 1639,
      "oth": 1640,
      "Actors": 1641,
      "testing": 1642,
      "internal": 1643,
      "defined": 1644,
      "automat": 1645,
      "automatically": 1646,
      "nch": 1647,
      "assert": 1648,
      "execution": 1649,
      "nchron": 1650,
      "):": 1651,
      "08": 1652,
      "CL": 1653,
      "Card": 1654,
      "Sh": 1655,
      "TSX": 1656,
      "Us": 1657,
      "Wire": 1658,
      "replace": 1659,
      "chat": 1660,
      "routed": 1661,
      "documents": 1662,
      "adcnCard": 1663,
      "Parses": 1664,
      "placeholder": 1665,
      "authors": 1666,
      "CLI": 1667,
      "ShadcnCard": 1668,
      "Usage": 1669,
      "implement": 1670,
      "**,": 1671,
      "complete": 1672,
      "ain": 1673,
      "ich": 1674,
      "op": 1675,
      "}`": 1676,
      "onclick": 1677,
      "ign": 1678,
      "arts": 1679,
      "actors": 1680,
      "workflows": 1681,
      "which": 1682,
      "restarts": 1683,
      "Do": 1684,
      "QL": 1685,
      "SQL": 1686,
      "bui": 1687,
      "ding": 1688,
      "each": 1689,
      "ho": 1690,
      "mb": 1691,
      "must": 1692,
      "native": 1693,
      "ry": 1694,
      "rst": 1695,
      "zz": 1696,
      "define": 1697,
      "col": 1698,
      "first": 1699,
      "call": 1700,
      "handlers": 1701,
      "components": 1702,
      "check": 1703,
      "fuzz": 1704,
      "They": 1705,
      "names": 1706,
      "definit": 1707,
      "fully": 1708,
      "clu": 1709,
      "speci": 1710,
      "Docker": 1711,
      "built": 1712,
      "cas": 1713,
      "evalu": 1714,
      "mens": 1715,
      "net": 1716,
      "rs": 1717,
      "reactive": 1718,
      "anged": 1719,
      "changed": 1720,
      "proper": 1721,
      "fix": 1722,
      "moke": 1723,
      "operator": 1724,
      "generate": 1725,
      "complex": 1726,
      "nchronous": 1727,
      "cases": 1728,
      "network": 1729,
      "aint": 1730,
      "md": 1731,
      "py": 1732,
      "tor": 1733,
      "straint": 1734,
      "constraint": 1735,
      "ADTs": 1736,
      "variable": 1737,
      "expression": 1738,
      "pytor": 1739,
      "constraints": 1740,
      "pytorch": 1741,
      "):**": 1742,
      "He": 1743,
      "ia": 1744,
      "nu": 1745,
      "new": 1746,
      "ra": 1747,
      "tar": 1748,
      "scient": 1749,
      "readme": 1750,
      "gets": 1751,
      "shared": 1752,
      "strates": 1753,
      "Demonstrates": 1754,
      "llm": 1755,
      "ugg": 1756,
      "...": 1757,
      "Here": 1758,
      "targets": 1759,
      "scientia": 1760,
      "!\")": 1761,
      "From": 1762,
      "Me": 1763,
      "]`": 1764,
      "`//": 1765,
      "ay": 1766,
      "emb": 1767,
      "long": 1768,
      "miss": 1769,
      "nce": 1770,
      "oc": 1771,
      "sk": 1772,
      "}}>\"": 1773,
      "inclu": 1774,
      "ree": 1775,
      "era": 1776,
      "leg": 1777,
      "oug": 1778,
      "any": 1779,
      "ese": 1780,
      "amera": 1781,
      "fied": 1782,
      "_camera": 1783,
      "comm": 1784,
      "comes": 1785,
      "stead": 1786,
      "survi": 1787,
      "permiss": 1788,
      "becomes": 1789,
      "orchestr": 1790,
      "models": 1791,
      "declaration": 1792,
      "Notify": 1793,
      "interop": 1794,
      "maps": 1795,
      "mobile_camera": 1796,
      "need": 1797,
      "embed": 1798,
      ">`": 1799,
      "JS": 1800,
      "ON": 1801,
      "ict": 1802,
      "ops": 1803,
      "ties": 1804,
      "wer": 1805,
      "ynchronous": 1806,
      "inv": 1807,
      "stand": 1808,
      "rend": 1809,
      "strict": 1810,
      "ali": 1811,
      "look": 1812,
      "olated": 1813,
      "isolated": 1814,
      "asynchronous": 1815,
      "disc": 1816,
      "cept": 1817,
      "compiled": 1818,
      "power": 1819,
      "functional": 1820,
      "matching": 1821,
      "sets": 1822,
      "**:": 1823,
      "**`": 1824,
      "mark": 1825,
      "tasks": 1826,
      "comments": 1827,
      "runn": 1828,
      "correct": 1829,
      "interactive": 1830,
      "fety": 1831,
      "safety": 1832,
      "Any": 1833,
      "other": 1834,
      "assertions": 1835,
      "definitions": 1836,
      "properties": 1837,
      "JSON": 1838,
      "standard": 1839,
      "strictly": 1840,
      ":`).": 1841,
      "?`": 1842,
      "By": 1843,
      "Dou": 1844,
      "Lab": 1845,
      "List": 1846,
      "Uses": 1847,
      "`?`": 1848,
      "ause": 1849,
      "bled": 1850,
      "ha": 1851,
      "imple": 1852,
      "ially": 1853,
      "pon": 1854,
      "simple": 1855,
      "stor": 1856,
      "defa": 1857,
      "allow": 1858,
      "ance": 1859,
      "entially": 1860,
      "unmounted": 1861,
      "respon": 1862,
      "ctions": 1863,
      "Reset": 1864,
      "Reactive": 1865,
      "Decrement": 1866,
      "TaskList": 1867,
      "etch": 1868,
      "_smoke": 1869,
      "imports": 1870,
      "Types": 1871,
      "See": 1872,
      "queries": 1873,
      "supports": 1874,
      "crates": 1875,
      "reactive_smoke": 1876,
      "variables": 1877,
      "Doubled": 1878,
      "Label": 1879,
      "storage": 1880,
      "default": 1881,
      ")**": 1882,
      "AST": 1883,
      "It": 1884,
      "Ke": 1885,
      "_load": 1886,
      "ave": 1887,
      "bining": 1888,
      "card": 1889,
      "don": 1890,
      "dri": 1891,
      "dcard": 1892,
      "eco": 1893,
      "emit": 1894,
      "kes": 1895,
      "ns": 1896,
      "os": 1897,
      "ph": 1898,
      "sol": 1899,
      "wires": 1900,
      "ines": 1901,
      "react": 1902,
      "rece": 1903,
      "loose": 1904,
      "second": 1905,
      "ORM": 1906,
      "layout": 1907,
      "program": 1908,
      "unic": 1909,
      "units": 1910,
      "outside": 1911,
      "ption": 1912,
      "ild": 1913,
      "activities": 1914,
      "compos": 1915,
      "pair": 1916,
      "caps": 1917,
      "combining": 1918,
      "three": 1919,
      "these": 1920,
      "state_s": 1921,
      "state_load": 1922,
      "expl": 1923,
      "Context": 1924,
      "when": 1925,
      "strings": 1926,
      "handles": 1927,
      "operation": 1928,
      "meet": 1929,
      "extens": 1930,
      "places": 1931,
      "strateg": 1932,
      "numb": 1933,
      "exposes": 1934,
      "redirect": 1935,
      "enables": 1936,
      "backend": 1937,
      "backpack": 1938,
      "generated": 1939,
      "LLMs": 1940,
      "directive": 1941,
      "wildcard": 1942,
      "design": 1943,
      "Parser": 1944,
      "implemented": 1945,
      "implementation": 1946,
      "specified": 1947,
      "null": 1948,
      "skip": 1949,
      "communic": 1950,
      "permission": 1951,
      "drift": 1952,
      "ecosystem": 1953,
      "receives": 1954,
      "state_save": 1955,
      "extension": 1956,
      "Every": 1957,
      "ML": 1958,
      "Whe": 1959,
      "`#": 1960,
      "`|": 1961,
      "both": 1962,
      "cure": 1963,
      "dr": 1964,
      "every": 1965,
      "fs": 1966,
      "mu": 1967,
      "mult": 1968,
      "nde": 1969,
      "od": 1970,
      "opt": 1971,
      "roug": 1972,
      "want": 1973,
      "ins": 1974,
      "inally": 1975,
      "instead": 1976,
      "rel": 1977,
      "rent": 1978,
      "request": 1979,
      "rende": 1980,
      "onom": 1981,
      "alle": 1982,
      "entry": 1983,
      "cover": 1984,
      "lore": 1985,
      "local": 1986,
      "ately": 1987,
      "secur": 1988,
      "seque": 1989,
      "secure": 1990,
      "vides": 1991,
      "abl": 1992,
      "exist": 1993,
      "except": 1994,
      "structur": 1995,
      "structure": 1996,
      "ivities": 1997,
      "project": 1998,
      "provides": 1999,
      "under": 2000,
      "resol": 2001,
      "combin": 2002,
      "throug": 2003,
      "ics": 2004,
      "image": 2005,
      "Activities": 2006,
      "oked": 2007,
      "agents": 2008,
      "anti": 2009,
      "HTML": 2010,
      "URL": 2011,
      "hydr": 2012,
      "Workflows": 2013,
      "annotated": 2014,
      "annotations": 2015,
      "interact": 2016,
      "inputs": 2017,
      "time": 2018,
      "hold": 2019,
      "instanti": 2020,
      "hook": 2021,
      "namespa": 2022,
      "Dockerfile": 2023,
      "evaluates": 2024,
      "survive": 2025,
      "orchestration": 2026,
      "invoked": 2027,
      "alias": 2028,
      "powerful": 2029,
      "running": 2030,
      "When": 2031,
      "`|>`": 2032,
      "mutable": 2033,
      "multi": 2034,
      "rendered": 2035,
      "security": 2036,
      "sequenc": 2037,
      "securely": 2038,
      "exceptions": 2039,
      "through": 2040,
      "Ab": 2041,
      "Bec": 2042,
      "Effect": 2043,
      "Fun": 2044,
      "Lex": 2045,
      "Open": 2046,
      "Used": 2047,
      "](": 2048,
      "`**": 2049,
      "bal": 2050,
      "ced": 2051,
      "crate": 2052,
      "ear": 2053,
      "element": 2054,
      "glo": 2055,
      "gation": 2056,
      "has": 2057,
      "ila": 2058,
      "might": 2059,
      "nat": 2060,
      "pass": 2061,
      "rc": 2062,
      "su": 2063,
      "src": 2064,
      "start": 2065,
      "oup": 2066,
      "stract": 2067,
      "loops": 2068,
      "rete": 2069,
      "sequ": 2070,
      "sever": 2071,
      "acts": 2072,
      "ary": 2073,
      "exha": 2074,
      "ively": 2075,
      "ments": 2076,
      "ibut": 2077,
      "instructions": 2078,
      "toolsets": 2079,
      "files": 2080,
      "Reg": 2081,
      "than": 2082,
      "ability": 2083,
      "Agents": 2084,
      "agentic": 2085,
      "operate": 2086,
      "rust": 2087,
      "variant": 2088,
      "modeled": 2089,
      "ustive": 2090,
      "ather": 2091,
      "transaction": 2092,
      "supported": 2093,
      "instance": 2094,
      "colle": 2095,
      "specific": 2096,
      "evaluate": 2097,
      "networking": 2098,
      "render": 2099,
      "discrete": 2100,
      "allows": 2101,
      "responding": 2102,
      "Abstract": 2103,
      "Because": 2104,
      "Functions": 2105,
      "Lexical": 2106,
      "early": 2107,
      "global": 2108,
      "ilable": 2109,
      "natively": 2110,
      "sequentially": 2111,
      "several": 2112,
      "exhaustive": 2113,
      "%`": 2114,
      "(`@": 2115,
      "3c": 2116,
      "Ax": 2117,
      "And": 2118,
      "Bun": 2119,
      "Cust": 2120,
      "DE": 2121,
      "EM": 2122,
      "En": 2123,
      "Ent": 2124,
      "Esc": 2125,
      "Eif": 2126,
      "Enu": 2127,
      "Fu": 2128,
      "Imp": 2129,
      "Lay": 2130,
      "Nam": 2131,
      "Ora": 2132,
      "Once": 2133,
      "Option": 2134,
      "Pat": 2135,
      "Sm": 2136,
      "Ser": 2137,
      "Spa": 2138,
      "Tot": 2139,
      "T3c": 2140,
      "TEM": 2141,
      "Wh": 2142,
      "_v": 2143,
      "`%": 2144,
      "`/": 2145,
      "`{": 2146,
      "`)**": 2147,
      "af": 2148,
      "ape": 2149,
      "ares": 2150,
      "ainst": 2151,
      "akes": 2152,
      "bu": 2153,
      "bou": 2154,
      "bit": 2155,
      "bient": 2156,
      "cer": 2157,
      "cis": 2158,
      "case": 2159,
      "cies": 2160,
      "cates": 2161,
      "ders": 2162,
      "dif": 2163,
      "dled": 2164,
      "dist": 2165,
      "ep": 2166,
      "eded": 2167,
      "fr": 2168,
      "fol": 2169,
      "fel": 2170,
      "fen": 2171,
      "fut": 2172,
      "fence": 2173,
      "fore": 2174,
      "fined": 2175,
      "fra": 2176,
      "finally": 2177,
      "gl": 2178,
      "gui": 2179,
      "her": 2180,
      "hat": 2181,
      "hig": 2182,
      "hum": 2183,
      "happ": 2184,
      "ivi": 2185,
      "ipe": 2186,
      "ice": 2187,
      "ired": 2188,
      "jour": 2189,
      "ks": 2190,
      "kto": 2191,
      "klore": 2192,
      "ls": 2193,
      "line": 2194,
      "lives": 2195,
      "linter": 2196,
      "lines": 2197,
      "mer": 2198,
      "met": 2199,
      "nation": 2200,
      "nded": 2201,
      "oic": 2202,
      "open": 2203,
      "oses": 2204,
      "pret": 2205,
      "pipeline": 2206,
      "pile": 2207,
      "pipe": 2208,
      "rt": 2209,
      "rar": 2210,
      "rum": 2211,
      "sand": 2212,
      "sable": 2213,
      "splay": 2214,
      "spl": 2215,
      "simp": 2216,
      "sile": 2217,
      "sign": 2218,
      "smoke": 2219,
      "tel": 2220,
      "ten": 2221,
      "ture": 2222,
      "ual": 2223,
      "ually": 2224,
      "uption": 2225,
      "ving": 2226,
      "ves": 2227,
      "verge": 2228,
      "voc": 2229,
      "wser": 2230,
      "wers": 2231,
      "wants": 2232,
      "y_f": 2233,
      "}}": 2234,
      "inct": 2235,
      "inal": 2236,
      "invent": 2237,
      "story": 2238,
      "stash": 2239,
      "stay": 2240,
      "stops": 2241,
      "stics": 2242,
      "stakes": 2243,
      "real": 2244,
      "rese": 2245,
      "reactivity": 2246,
      "remain": 2247,
      "remon": 2248,
      "reach": 2249,
      "repair": 2250,
      "replaces": 2251,
      "erred": 2252,
      "ernal": 2253,
      "once": 2254,
      "ature": 2255,
      "atte": 2256,
      "orph": 2257,
      "orbit": 2258,
      "ntly": 2259,
      "cted": 2260,
      "strugg": 2261,
      "dev": 2262,
      "depen": 2263,
      "decis": 2264,
      "allo": 2265,
      "algebraic": 2266,
      "altern": 2267,
      "trivi": 2268,
      "try_f": 2269,
      "iting": 2270,
      "ites": 2271,
      "itable": 2272,
      "itim": 2273,
      "itive": 2274,
      "itical": 2275,
      "itely": 2276,
      "entri": 2277,
      "mplate": 2278,
      "cosplay": 2279,
      "lot": 2280,
      "laps": 2281,
      "atever": 2282,
      "tocol": 2283,
      "intent": 2284,
      "interr": 2285,
      "intain": 2286,
      "sens": 2287,
      "tract": 2288,
      "track": 2289,
      "tracker": 2290,
      "virt": 2291,
      "ish": 2292,
      "here": 2293,
      "about": 2294,
      "absol": 2295,
      "ussable": 2296,
      "arch": 2297,
      "root": 2298,
      "uration": 2299,
      "ambient": 2300,
      "amorph": 2301,
      "stacks": 2302,
      "theref": 2303,
      "vention": 2304,
      "validate": 2305,
      "concate": 2306,
      "conne": 2307,
      "concer": 2308,
      "converge": 2309,
      "contract": 2310,
      "convention": 2311,
      "chrom": 2312,
      "child": 2313,
      "proces": 2314,
      "proble": 2315,
      "unit": 2316,
      "unchanged": 2317,
      "unimplemented": 2318,
      "outs": 2319,
      "outName": 2320,
      "dencies": 2321,
      "scan": 2322,
      "Input": 2323,
      "Instead": 2324,
      "Infra": 2325,
      "Inline": 2326,
      "apart": 2327,
      "forget": 2328,
      "forcing": 2329,
      "forks": 2330,
      "kinds": 2331,
      "tables": 2332,
      "scripting": 2333,
      "encaps": 2334,
      "ily": 2335,
      "Writing": 2336,
      "ceremon": 2337,
      "amework": 2338,
      "ute": 2339,
      "utation": 2340,
      "compares": 2341,
      "computation": 2342,
      "asks": 2343,
      "mpts": 2344,
      "working": 2345,
      "workers": 2346,
      "workspa": 2347,
      "within": 2348,
      "Exten": 2349,
      "curs": 2350,
      "Replace": 2351,
      "aseable": 2352,
      "Decl": 2353,
      "Deleg": 2354,
      "Defined": 2355,
      "thing": 2356,
      "thir": 2357,
      "thoug": 2358,
      "thod": 2359,
      "ashes": 2360,
      "agno": 2361,
      "again": 2362,
      "against": 2363,
      "mock": 2364,
      "stateful": 2365,
      "party": 2366,
      "show": 2367,
      "plugg": 2368,
      "charging": 2369,
      "formed": 2370,
      "Suitable": 2371,
      "establ": 2372,
      "orts": 2373,
      "orting": 2374,
      "creates": 2375,
      "**.": 2376,
      "ializable": 2377,
      "clause": 2378,
      "margin": 2379,
      "browser": 2380,
      "Eventually": 2381,
      "configuration": 2382,
      "may": 2383,
      "makes": 2384,
      "maintain": 2385,
      "trade_re": 2386,
      "tokens": 2387,
      "unions": 2388,
      "wning": 2389,
      "being": 2390,
      "before": 2391,
      "summit": 2392,
      "Moder": 2393,
      "apps": 2394,
      "proposed": 2395,
      "whatever": 2396,
      "primarily": 2397,
      "address": 2398,
      "vironmentDecl": 2399,
      "diagno": 2400,
      "some": 2401,
      "product": 2402,
      "Structs": 2403,
      "method": 2404,
      "external": 2405,
      "finds": 2406,
      "modify": 2407,
      "terthoug": 2408,
      "modes": 2409,
      "Typed": 2410,
      "retries": 2411,
      "chooses": 2412,
      "writes": 2413,
      "declares": 2414,
      "demonstrate": 2415,
      "Protocol": 2416,
      "noop": 2417,
      "owns": 2418,
      "contain": 2419,
      "discover": 2420,
      "librar": 2421,
      "Reports": 2422,
      "RouteEnt": 2423,
      "twice": 2424,
      "requires": 2425,
      "required": 2426,
      "integer": 2427,
      "boxed": 2428,
      "interactivity": 2429,
      "interpret": 2430,
      "wraps": 2431,
      "politely": 2432,
      "precondition": 2433,
      "endpoints": 2434,
      "ferent": 2435,
      "smugg": 2436,
      "smalle": 2437,
      "generic": 2438,
      "defines": 2439,
      "Useful": 2440,
      "answers": 2441,
      "is_llm": 2442,
      "is_wildcard": 2443,
      "inferred": 2444,
      "133": 2445,
      "template": 2446,
      "naling": 2447,
      "deskto": 2448,
      "autonom": 2449,
      "exporting": 2450,
      "exported": 2451,
      "supporting": 2452,
      "needed": 2453,
      "failing": 2454,
      "refers": 2455,
      "placeholders": 2456,
      "critical": 2457,
      "crashes": 2458,
      "effects": 2459,
      "}`**,": 2460,
      "host": 2461,
      "collaps": 2462,
      "checked": 2463,
      "fuzzing": 2464,
      "definition": 2465,
      "fixture": 2466,
      "raw": 2467,
      "...`.": 2468,
      "longer": 2469,
      "occurs": 2470,
      "include": 2471,
      "including": 2472,
      "legitim": 2473,
      "surviving": 2474,
      "orchestrated": 2475,
      "needs": 2476,
      "embedded": 2477,
      "embedding": 2478,
      "renders": 2479,
      "looks": 2480,
      "discussable": 2481,
      "**`\"/": 2482,
      "marks": 2483,
      "correctly": 2484,
      "Key": 2485,
      "Keep": 2486,
      "phaseable": 2487,
      "solves": 2488,
      "composite": 2489,
      "composition": 2490,
      "pairs": 2491,
      "meets": 2492,
      "meeting": 2493,
      "strategy": 2494,
      "strategies": 2495,
      "number": 2496,
      "numbers": 2497,
      "redirects": 2498,
      "communication": 2499,
      "communicates": 2500,
      "permissioned": 2501,
      "drifting": 2502,
      "Everything": 2503,
      "insight": 2504,
      "relative": 2505,
      "coverage": 2506,
      "structural": 2507,
      "projects": 2508,
      "resolver": 2509,
      "combination": 2510,
      "hydration": 2511,
      "timeouts": 2512,
      "holds": 2513,
      "instantiation": 2514,
      "namespace": 2515,
      "sequencing": 2516,
      "Axum": 2517,
      "Bundled": 2518,
      "Custom": 2519,
      "DEI": 2520,
      "EnvironmentDecl": 2521,
      "Escape": 2522,
      "Eiffel": 2523,
      "Enums": 2524,
      "Full": 2525,
      "Importing": 2526,
      "LayoutName": 2527,
      "Naming": 2528,
      "Oracle": 2529,
      "Pattern": 2530,
      "Small": 2531,
      "Serializable": 2532,
      "Spawning": 2533,
      "Total": 2534,
      "TEMP": 2535,
      "While": 2536,
      "_v2": 2537,
      "afterthoug": 2538,
      "build": 2539,
      "bounded": 2540,
      "different": 2541,
      "distinct": 2542,
      "framework": 2543,
      "folklore": 2544,
      "fences": 2545,
      "future": 2546,
      "glue": 2547,
      "guided": 2548,
      "heroic": 2549,
      "hatch": 2550,
      "high": 2551,
      "human": 2552,
      "happy": 2553,
      "journaling": 2554,
      "merging": 2555,
      "metamorph": 2556,
      "rumor": 2557,
      "sandboxed": 2558,
      "split": 2559,
      "simply": 2560,
      "silently": 2561,
      "signature": 2562,
      "tells": 2563,
      "vocab": 2564,
      "}}`).": 2565,
      "inal_v2": 2566,
      "inventing": 2567,
      "stays": 2568,
      "research": 2569,
      "remains": 2570,
      "attempts": 2571,
      "struggle": 2572,
      "dependencies": 2573,
      "decision": 2574,
      "allocates": 2575,
      "alternative": 2576,
      "trivial": 2577,
      "try_final_v2": 2578,
      "entries": 2579,
      "interruption": 2580,
      "sensitive": 2581,
      "tracks": 2582,
      "virtual": 2583,
      "absolute": 2584,
      "roots": 2585,
      "therefore": 2586,
      "concatenation": 2587,
      "connected": 2588,
      "concerns": 2589,
      "convergence": 2590,
      "chrome": 2591,
      "processed": 2592,
      "problem": 2593,
      "Infrastructure": 2594,
      "encapsulate": 2595,
      "ceremony": 2596,
      "workspace": 2597,
      "Extended": 2598,
      "Delegating": 2599,
      "third": 2600,
      "showing": 2601,
      "pluggable": 2602,
      "establish": 2603,
      "trade_retry_final_v2": 2604,
      "Modern": 2605,
      "diagnostics": 2606,
      "someone": 2607,
      "libraries": 2608,
      "RouteEntry": 2609,
      "interpreted": 2610,
      "smuggled": 2611,
      "smallest": 2612,
      "desktop": 2613,
      "autonomous": 2614,
      "collapses": 2615,
      "legitimately": 2616,
      "afterthought": 2617,
      "metamorphic": 2618,
      "\"`": 2619,
      ")).": 2620,
      ")`.": 2621,
      "./": 2622,
      ":<": 2623,
      "AP": 2624,
      "Ac": 2625,
      "Blo": 2626,
      "Co": 2627,
      "Cli": 2628,
      "Com": 2629,
      "DK": 2630,
      "Fetch": 2631,
      "Finally": 2632,
      "Gr": 2633,
      "Hash": 2634,
      "HIR": 2635,
      "Is": 2636,
      "Its": 2637,
      "JSX": 2638,
      "Lin": 2639,
      "Let": 2640,
      "None": 2641,
      "Next": 2642,
      "Old": 2643,
      "Pre": 2644,
      "Ra": 2645,
      "Rather": 2646,
      "Stable": 2647,
      "Sup": 2648,
      "Sim": 2649,
      "SDK": 2650,
      "Tree": 2651,
      "Up": 2652,
      "Using": 2653,
      "VM": 2654,
      "Vari": 2655,
      "[`": 2656,
      "]`,": 2657,
      "`\"": 2658,
      "`;": 2659,
      "`—": 2660,
      "`.*": 2661,
      "`](": 2662,
      "av": 2663,
      "ailable": 2664,
      "car": 2665,
      "cause": 2666,
      "date": 2667,
      "dur": 2668,
      "day": 2669,
      "equ": 2670,
      "eper": 2671,
      "fer": 2672,
      "follow": 2673,
      "fron": 2674,
      "ffix": 2675,
      "fetch": 2676,
      "gre": 2677,
      "gine": 2678,
      "gument": 2679,
      "gonom": 2680,
      "hash": 2681,
      "hits": 2682,
      "ick": 2683,
      "iste": 2684,
      "ilar": 2685,
      "ification": 2686,
      "iately": 2687,
      "lin": 2688,
      "light": 2689,
      "lating": 2690,
      "max": 2691,
      "mory": 2692,
      "med": 2693,
      "mag": 2694,
      "mix": 2695,
      "ned": 2696,
      "now": 2697,
      "nical": 2698,
      "pse": 2699,
      "pot": 2700,
      "predicate": 2701,
      "present": 2702,
      "pically": 2703,
      "qwe": 2704,
      "rand": 2705,
      "rail": 2706,
      "round": 2707,
      "rare": 2708,
      "ranges": 2709,
      "rather": 2710,
      "tre": 2711,
      "tut": 2712,
      "turn": 2713,
      "tend": 2714,
      "ux": 2715,
      "unt": 2716,
      "uce": 2717,
      "udo": 2718,
      "van": 2719,
      "ved": 2720,
      "was": 2721,
      "—`@": 2722,
      "inhe": 2723,
      "inary": 2724,
      "invariant": 2725,
      "static": 2726,
      "stability": 2727,
      "stick": 2728,
      "reject": 2729,
      "rely": 2730,
      "refe": 2731,
      "reused": 2732,
      "rence": 2733,
      "represent": 2734,
      "reqwe": 2735,
      "ergonom": 2736,
      "onCh": 2737,
      "onCli": 2738,
      "ats": 2739,
      "attr": 2740,
      "atom": 2741,
      "orial": 2742,
      "orned": 2743,
      "less": 2744,
      "ctate": 2745,
      "ctive": 2746,
      "stribut": 2747,
      "descri": 2748,
      "deter": 2749,
      "destructur": 2750,
      "deeper": 2751,
      "ality": 2752,
      "ange": 2753,
      "anch": 2754,
      "ances": 2755,
      "itions": 2756,
      "entity": 2757,
      "last": 2758,
      "today": 2759,
      "seam": 2760,
      "separ": 2761,
      "send": 2762,
      "train": 2763,
      "vior": 2764,
      "vice": 2765,
      "typically": 2766,
      "argument": 2767,
      "pective": 2768,
      "extra": 2769,
      "exact": 2770,
      "servers": 2771,
      "service": 2772,
      "adorned": 2773,
      "they": 2774,
      "ivate": 2775,
      "syste": 2776,
      "synchron": 2777,
      "symb": 2778,
      "synchronous": 2779,
      "construction": 2780,
      "conclu": 2781,
      "chine": 2782,
      "chnical": 2783,
      "prop": 2784,
      "prose": 2785,
      "propa": 2786,
      "rich": 2787,
      "unpack": 2788,
      "unification": 2789,
      "outbound": 2790,
      "output": 2791,
      "edge": 2792,
      "fill": 2793,
      "appl": 2794,
      "quali": 2795,
      "Err": 2796,
      "resort": 2797,
      "ressed": 2798,
      "enabl": 2799,
      "engine": 2800,
      "illeg": 2801,
      "ups": 2802,
      "Resources": 2803,
      "poss": 2804,
      "lies": 2805,
      "talk": 2806,
      "Advan": 2807,
      "matic": 2808,
      "lete": 2809,
      "datase": 2810,
      "matches": 2811,
      "Ref": 2812,
      "Delete": 2813,
      "comma": 2814,
      "ourages": 2815,
      "mutability": 2816,
      "setup": 2817,
      "more": 2818,
      "statement": 2819,
      "parses": 2820,
      "paralle": 2821,
      "imum": 2822,
      "immutable": 2823,
      "immed": 2824,
      "lands": 2825,
      "Creates": 2826,
      "short": 2827,
      "explore": 2828,
      "expressed": 2829,
      "ActorRef": 2830,
      "formance": 2831,
      "domain": 2832,
      "results": 2833,
      "getResources": 2834,
      "single": 2835,
      "failable": 2836,
      "isters": 2837,
      "create": 2838,
      "ialized": 2839,
      "branch": 2840,
      "panics": 2841,
      "Aggre": 2842,
      "perspective": 2843,
      "machine": 2844,
      "reserved": 2845,
      "surround": 2846,
      "braces": 2847,
      "performance": 2848,
      "limits": 2849,
      "Works": 2850,
      "beha": 2851,
      "because": 2852,
      "ordinary": 2853,
      "keywords": 2854,
      "applic": 2855,
      "runs": 2856,
      "adding": 2857,
      "gration": 2858,
      "group": 2859,
      "dictate": 2860,
      "distribut": 2861,
      "ordering": 2862,
      "produce": 2863,
      "private": 2864,
      "systemd": 2865,
      "tester": 2866,
      "exposed": 2867,
      "metal": 2868,
      "memory": 2869,
      "Chain": 2870,
      "initialized": 2871,
      "Also": 2872,
      "bypass": 2873,
      "context": 2874,
      "These": 2875,
      "package": 2876,
      "bridged": 2877,
      "projections": 2878,
      "processes": 2879,
      "roles": 2880,
      "posting": 2881,
      "integration": 2882,
      "ators": 2883,
      "assign": 2884,
      "conditions": 2885,
      "backed": 2886,
      "wrapped": 2887,
      "guards": 2888,
      "guardrail": 2889,
      "conditionally": 2890,
      "prefix": 2891,
      "prefer": 2892,
      "uster": 2893,
      "feel": 2894,
      "ensure": 2895,
      "manifests": 2896,
      "LLVM": 2897,
      "defining": 2898,
      "binary": 2899,
      "transform": 2900,
      "translating": 2901,
      "infers": 2902,
      "fulfill": 2903,
      "accessible": 2904,
      "mines": 2905,
      "identical": 2906,
      "ports": 2907,
      "../": 2908,
      "technical": 2909,
      "speed": 2910,
      "execute": 2911,
      "executed": 2912,
      "rolled": 2913,
      "encourages": 2914,
      "cluster": 2915,
      "specify": 2916,
      "instances": 2917,
      "hood": 2918,
      "rying": 2919,
      "checks": 2920,
      "checkpoint": 2921,
      "fuzzer": 2922,
      "builtins": 2923,
      "property": 2924,
      "`//`.": 2925,
      "ocation": 2926,
      "sketch": 2927,
      "includes": 2928,
      "command": 2929,
      "permissions": 2930,
      "invocation": 2931,
      "lookups": 2932,
      "cepts": 2933,
      "marked": 2934,
      "runner": 2935,
      "responses": 2936,
      "`#`": 2937,
      "optimal": 2938,
      "related": 2939,
      "rently": 2940,
      "requests": 2941,
      "exists": 2942,
      "resolve": 2943,
      "combinators": 2944,
      "hydrated": 2945,
      "instantiate": 2946,
      "hooks": 2947,
      "namespaced": 2948,
      "sequences": 2949,
      "](../": 2950,
      "elements": 2951,
      "passes": 2952,
      "such": 2953,
      "suffix": 2954,
      "starter": 2955,
      "ibutes": 2956,
      "Registe": 2957,
      "Registers": 2958,
      "collection": 2959,
      "collections": 2960,
      "API": 2961,
      "Accepts": 2962,
      "Block": 2963,
      "Codex": 2964,
      "Comments": 2965,
      "Group": 2966,
      "Islands": 2967,
      "Linux": 2968,
      "Older": 2969,
      "Prefix": 2970,
      "Raw": 2971,
      "Suppose": 2972,
      "Similar": 2973,
      "Update": 2974,
      "Variable": 2975,
      "`](./": 2976,
      "available": 2977,
      "carrying": 2978,
      "during": 2979,
      "equality": 2980,
      "following": 2981,
      "frontend": 2982,
      "hashing": 2983,
      "liners": 2984,
      "lightweight": 2985,
      "maximum": 2986,
      "magic": 2987,
      "pseudo": 2988,
      "potentially": 2989,
      "random": 2990,
      "rarely": 2991,
      "treats": 2992,
      "tutorial": 2993,
      "turning": 2994,
      "until": 2995,
      "inherently": 2996,
      "reference": 2997,
      "representing": 2998,
      "reqwest": 2999,
      "ergonomic": 3000,
      "onChange": 3001,
      "onClick": 3002,
      "attributes": 3003,
      "atomic": 3004,
      "lessly": 3005,
      "describe": 3006,
      "determines": 3007,
      "destructuring": 3008,
      "seamlessly": 3009,
      "separated": 3010,
      "systematic": 3011,
      "synchronize": 3012,
      "symbol": 3013,
      "synchronously": 3014,
      "concludes": 3015,
      "propagation": 3016,
      "unpacks": 3017,
      "outputs": 3018,
      "apply": 3019,
      "qualified": 3020,
      "enabling": 3021,
      "illegal": 3022,
      "possible": 3023,
      "Advanced": 3024,
      "datasets": 3025,
      "parallel": 3026,
      "immediately": 3027,
      "Aggregation": 3028,
      "surrounding": 3029,
      "behavior": 3030,
      "applications": 3031,
      "distributed": 3032,
      "assignments": 3033,
      "guardrails": 3034,
      "sketches": 3035,
      "Registered": 3036,
      "pseudocode": 3037
    },
    "merges": [
      [
        "i",
        "n"
      ],
      [
        "/",
        "/"
      ],
      [
        "s",
        "t"
      ],
      [
        "r",
        "e"
      ],
      [
        "e",
        "r"
      ],
      [
        "o",
        "n"
      ],
      [
        "a",
        "t"
      ],
      [
        "o",
        "r"
      ],
      [
        "l",
        "e"
      ],
      [
        "n",
        "t"
      ],
      [
        "c",
        "t"
      ],
      [
        "o",
        "u"
      ],
      [
        "st",
        "r"
      ],
      [
        "i",
        "on"
      ],
      [
        "in",
        "g"
      ],
      [
        "d",
        "e"
      ],
      [
        "a",
        "l"
      ],
      [
        "a",
        "n"
      ],
      [
        "t",
        "r"
      ],
      [
        "i",
        "t"
      ],
      [
        "`",
        "`"
      ],
      [
        "e",
        "s"
      ],
      [
        "e",
        "nt"
      ],
      [
        "m",
        "p"
      ],
      [
        "c",
        "o"
      ],
      [
        "l",
        "o"
      ],
      [
        "-",
        "-"
      ],
      [
        "o",
        "x"
      ],
      [
        "l",
        "a"
      ],
      [
        "at",
        "e"
      ],
      [
        "t",
        "o"
      ],
      [
        "in",
        "t"
      ],
      [
        "o",
        "l"
      ],
      [
        "re",
        "t"
      ],
      [
        "an",
        "d"
      ],
      [
        "s",
        "e"
      ],
      [
        "tr",
        "a"
      ],
      [
        "in",
        "ing"
      ],
      [
        "g",
        "e"
      ],
      [
        "a",
        "ct"
      ],
      [
        "tra",
        "ining"
      ],
      [
        "training",
        "_"
      ],
      [
        "v",
        "i"
      ],
      [
        "i",
        "s"
      ],
      [
        "h",
        "e"
      ],
      [
        "a",
        "b"
      ],
      [
        "c",
        "k"
      ],
      [
        "i",
        "g"
      ],
      [
        "a",
        "x"
      ],
      [
        "O",
        "R"
      ],
      [
        "u",
        "s"
      ],
      [
        "A",
        "N"
      ],
      [
        "C",
        "H"
      ],
      [
        "AN",
        "CH"
      ],
      [
        "ANCH",
        "OR"
      ],
      [
        "t",
        "y"
      ],
      [
        "a",
        "r"
      ],
      [
        "p",
        "e"
      ],
      [
        "V",
        "ox"
      ],
      [
        "a",
        "s"
      ],
      [
        "``",
        "`"
      ],
      [
        "f",
        "n"
      ],
      [
        "ax",
        "_"
      ],
      [
        "or",
        "y"
      ],
      [
        "mp",
        "le"
      ],
      [
        "ou",
        "s"
      ],
      [
        "-",
        ">"
      ],
      [
        "r",
        "o"
      ],
      [
        "re",
        "vi"
      ],
      [
        "revi",
        "ous"
      ],
      [
        "u",
        "r"
      ],
      [
        "i",
        "d"
      ],
      [
        "u",
        "ct"
      ],
      [
        "a",
        "ck"
      ],
      [
        "la",
        "y"
      ],
      [
        "v",
        "al"
      ],
      [
        "e",
        "x"
      ],
      [
        "a",
        "mple"
      ],
      [
        "lo",
        "w"
      ],
      [
        "str",
        "uct"
      ],
      [
        "--",
        "-"
      ],
      [
        "ou",
        "nt"
      ],
      [
        "P",
        "revious"
      ],
      [
        "s",
        "er"
      ],
      [
        "co",
        "de"
      ],
      [
        "act",
        "or"
      ],
      [
        "h",
        "t"
      ],
      [
        "a",
        "m"
      ],
      [
        "st",
        "ack"
      ],
      [
        "a",
        "d"
      ],
      [
        "ty",
        "pe"
      ],
      [
        "t",
        "he"
      ],
      [
        "l",
        "t"
      ],
      [
        "i",
        "v"
      ],
      [
        "er",
        "s"
      ],
      [
        "r",
        "or"
      ],
      [
        "(",
        ")"
      ],
      [
        "ab",
        "le"
      ],
      [
        "v",
        "ent"
      ],
      [
        "2",
        "6"
      ],
      [
        "s",
        "y"
      ],
      [
        "u",
        "e"
      ],
      [
        "es",
        "s"
      ],
      [
        "val",
        "id"
      ],
      [
        "c",
        "on"
      ],
      [
        "c",
        "h"
      ],
      [
        "e",
        "l"
      ],
      [
        "c",
        "p"
      ],
      [
        "p",
        "ro"
      ],
      [
        "v",
        "ox"
      ],
      [
        "in",
        "d"
      ],
      [
        "r",
        "i"
      ],
      [
        "u",
        "n"
      ],
      [
        "u",
        "lt"
      ],
      [
        "m",
        "cp"
      ],
      [
        "ou",
        "t"
      ],
      [
        "at",
        "us"
      ],
      [
        "e",
        "d"
      ],
      [
        "m",
        "ax_"
      ],
      [
        "max_",
        "stack"
      ],
      [
        "sy",
        "nt"
      ],
      [
        "(",
        "\""
      ],
      [
        "tr",
        "ue"
      ],
      [
        "E",
        "N"
      ],
      [
        "_",
        "EN"
      ],
      [
        "ANCHOR",
        "_EN"
      ],
      [
        "ANCHOR_EN",
        "D"
      ],
      [
        "de",
        "n"
      ],
      [
        "g",
        "ol"
      ],
      [
        "gol",
        "den"
      ],
      [
        "s",
        "c"
      ],
      [
        "vent",
        "ory"
      ],
      [
        "I",
        "n"
      ],
      [
        "f",
        "i"
      ],
      [
        "st",
        "atus"
      ],
      [
        "er",
        "ge"
      ],
      [
        "a",
        "p"
      ],
      [
        "at",
        "ion"
      ],
      [
        ")",
        "."
      ],
      [
        "q",
        "u"
      ],
      [
        "m",
        "ent"
      ],
      [
        "o",
        "t"
      ],
      [
        "ex",
        "ample"
      ],
      [
        "p",
        "t"
      ],
      [
        "ate",
        "d"
      ],
      [
        "f",
        "or"
      ],
      [
        "k",
        "ind"
      ],
      [
        "E",
        "r"
      ],
      [
        "re",
        "s"
      ],
      [
        "t",
        "able"
      ],
      [
        "Er",
        "ror"
      ],
      [
        "sc",
        "ri"
      ],
      [
        "scri",
        "pt"
      ],
      [
        "i",
        "f"
      ],
      [
        "w",
        "or"
      ],
      [
        "er",
        "y"
      ],
      [
        "ct",
        "ion"
      ],
      [
        "ig",
        "ht"
      ],
      [
        "i",
        "b"
      ],
      [
        "2",
        "0"
      ],
      [
        "d",
        "b"
      ],
      [
        "e",
        "n"
      ],
      [
        "i",
        "l"
      ],
      [
        "w",
        "e"
      ],
      [
        "c",
        "ate"
      ],
      [
        "d",
        "is"
      ],
      [
        "qu",
        "ery"
      ],
      [
        "ib",
        "le"
      ],
      [
        "u",
        "p"
      ],
      [
        "W",
        "r"
      ],
      [
        "R",
        "es"
      ],
      [
        "we",
        "ight"
      ],
      [
        "st",
        "_"
      ],
      [
        "c",
        "e"
      ],
      [
        "lay",
        "er"
      ],
      [
        "Res",
        "ult"
      ],
      [
        "de",
        "script"
      ],
      [
        "r",
        "out"
      ],
      [
        "f",
        "low"
      ],
      [
        "20",
        "26"
      ],
      [
        "struct",
        "s"
      ],
      [
        "valid",
        "ated"
      ],
      [
        "v",
        "ers"
      ],
      [
        "g",
        "ory"
      ],
      [
        "t",
        "it"
      ],
      [
        "la",
        "st_"
      ],
      [
        "training_",
        "el"
      ],
      [
        "training_",
        "weight"
      ],
      [
        "ig",
        "ible"
      ],
      [
        "ax_",
        "vers"
      ],
      [
        "con",
        "structs"
      ],
      [
        "synt",
        "ax_vers"
      ],
      [
        "cate",
        "gory"
      ],
      [
        "descript",
        "ion"
      ],
      [
        "tit",
        "le"
      ],
      [
        "last_",
        "validated"
      ],
      [
        "training_el",
        "igible"
      ],
      [
        "syntax_vers",
        "ion"
      ],
      [
        "f",
        "un"
      ],
      [
        "am",
        "e"
      ],
      [
        "act",
        "iv"
      ],
      [
        "u",
        "t"
      ],
      [
        "struct",
        "ion"
      ],
      [
        "co",
        "mp"
      ],
      [
        "in",
        "struction"
      ],
      [
        "ol",
        "low"
      ],
      [
        "F",
        "ollow"
      ],
      [
        "it",
        "y"
      ],
      [
        "it",
        "e"
      ],
      [
        "p",
        "o"
      ],
      [
        "as",
        "k"
      ],
      [
        "_",
        "layer"
      ],
      [
        "mp",
        "t"
      ],
      [
        "training_",
        "pro"
      ],
      [
        "training_pro",
        "mpt"
      ],
      [
        "p",
        "lay"
      ],
      [
        "dis",
        "play"
      ],
      [
        "wor",
        "k"
      ],
      [
        "Wr",
        "ite"
      ],
      [
        "le",
        "d"
      ],
      [
        "a",
        "ge"
      ],
      [
        "In",
        "ventory"
      ],
      [
        "w",
        "it"
      ],
      [
        "wit",
        "h"
      ],
      [
        "h",
        "and"
      ],
      [
        "\"",
        ")"
      ],
      [
        "c",
        "al"
      ],
      [
        "l",
        "i"
      ],
      [
        "t",
        "al"
      ],
      [
        "n",
        "ot"
      ],
      [
        "A",
        "d"
      ],
      [
        "to",
        "tal"
      ],
      [
        "to",
        "ol"
      ],
      [
        "Ad",
        "d"
      ],
      [
        "fun",
        "ction"
      ],
      [
        "ar",
        "d"
      ],
      [
        "work",
        "flow"
      ],
      [
        "E",
        "x"
      ],
      [
        "m",
        "at"
      ],
      [
        "le",
        "t"
      ],
      [
        "d",
        "at"
      ],
      [
        "mat",
        "ch"
      ],
      [
        "Ex",
        "ample"
      ],
      [
        "0",
        "3"
      ],
      [
        "fi",
        "le"
      ],
      [
        "b",
        "o"
      ],
      [
        "m",
        "erge"
      ],
      [
        "c",
        "ur"
      ],
      [
        "R",
        "e"
      ],
      [
        "a",
        "se"
      ],
      [
        "_",
        "c"
      ],
      [
        "u",
        "re"
      ],
      [
        "lo",
        "ad"
      ],
      [
        "hand",
        "l"
      ],
      [
        "e",
        "w"
      ],
      [
        "p",
        "a"
      ],
      [
        "U",
        "ser"
      ],
      [
        "c",
        "ap"
      ],
      [
        "D",
        "e"
      ],
      [
        "co",
        "m"
      ],
      [
        "t",
        "p"
      ],
      [
        "ht",
        "tp"
      ],
      [
        "cur",
        "re"
      ],
      [
        "A",
        "p"
      ],
      [
        "ou",
        "r"
      ],
      [
        "n",
        "ame"
      ],
      [
        "m",
        "ut"
      ],
      [
        "T",
        "ask"
      ],
      [
        "mut",
        "ation"
      ],
      [
        "q",
        "ty"
      ],
      [
        "rout",
        "es"
      ],
      [
        "t",
        "h"
      ],
      [
        "in",
        "e"
      ],
      [
        "am",
        "ount"
      ],
      [
        "ab",
        "il"
      ],
      [
        "m",
        "s"
      ],
      [
        "cap",
        "abil"
      ],
      [
        "p",
        "at"
      ],
      [
        "cal",
        "led"
      ],
      [
        "se",
        "t"
      ],
      [
        "as",
        "h"
      ],
      [
        "A",
        "D"
      ],
      [
        "AD",
        "T"
      ],
      [
        "curre",
        "nt"
      ],
      [
        ":",
        "\""
      ],
      [
        "on",
        "ent"
      ],
      [
        "pat",
        "h"
      ],
      [
        "a",
        "g"
      ],
      [
        "comp",
        "onent"
      ],
      [
        "m",
        "o"
      ],
      [
        "st",
        "ate"
      ],
      [
        "Ap",
        "p"
      ],
      [
        "S",
        "t"
      ],
      [
        "f",
        "ig"
      ],
      [
        "i",
        "c"
      ],
      [
        "our",
        "ce"
      ],
      [
        "p",
        "ar"
      ],
      [
        "po",
        "se"
      ],
      [
        "ess",
        "ion"
      ],
      [
        ".",
        "\""
      ],
      [
        "C",
        "ount"
      ],
      [
        "us",
        "ing"
      ],
      [
        "i",
        "m"
      ],
      [
        "re",
        "ad"
      ],
      [
        ").",
        "\""
      ],
      [
        "l",
        "and"
      ],
      [
        "er",
        "r"
      ],
      [
        "is",
        "land"
      ],
      [
        "ur",
        "n"
      ],
      [
        "ret",
        "urn"
      ],
      [
        "set",
        "t"
      ],
      [
        "ab",
        "ase"
      ],
      [
        "le",
        "n"
      ],
      [
        "<",
        "/"
      ],
      [
        "er",
        "ror"
      ],
      [
        "activ",
        "e"
      ],
      [
        "co",
        "re"
      ],
      [
        "ess",
        "age"
      ],
      [
        "k",
        "en"
      ],
      [
        "n",
        "c"
      ],
      [
        "C",
        "re"
      ],
      [
        "Cre",
        "ate"
      ],
      [
        "_",
        "b"
      ],
      [
        "dat",
        "a"
      ],
      [
        "M",
        "erge"
      ],
      [
        "s",
        "h"
      ],
      [
        "e",
        "t"
      ],
      [
        "O",
        "k"
      ],
      [
        "capabil",
        "ity"
      ],
      [
        "ex",
        "p"
      ],
      [
        "activ",
        "ity"
      ],
      [
        "n",
        "d"
      ],
      [
        "st",
        "e"
      ],
      [
        "c",
        "ess"
      ],
      [
        "D",
        "at"
      ],
      [
        "y",
        "load"
      ],
      [
        "pa",
        "yload"
      ],
      [
        "Count",
        "er"
      ],
      [
        "im",
        "al"
      ],
      [
        "in",
        "imal"
      ],
      [
        "p",
        "l"
      ],
      [
        "bo",
        "ard"
      ],
      [
        "ash",
        "board"
      ],
      [
        "al",
        "l"
      ],
      [
        "vi",
        "ew"
      ],
      [
        "f",
        "ine"
      ],
      [
        "(",
        "{"
      ],
      [
        "res",
        "ource"
      ],
      [
        "A",
        "ct"
      ],
      [
        "i",
        "al"
      ],
      [
        "De",
        "fine"
      ],
      [
        "Act",
        "or"
      ],
      [
        "a",
        "il"
      ],
      [
        "handl",
        "er"
      ],
      [
        "ch",
        "ar"
      ],
      [
        "for",
        "m"
      ],
      [
        "i",
        "mp"
      ],
      [
        "in",
        "ventory"
      ],
      [
        "i",
        "z"
      ],
      [
        ")",
        ")"
      ],
      [
        "c",
        "cess"
      ],
      [
        "d",
        "o"
      ],
      [
        "<",
        "="
      ],
      [
        "C",
        "on"
      ],
      [
        "j",
        "e"
      ],
      [
        "res",
        "ult"
      ],
      [
        "c",
        "ount"
      ],
      [
        "M",
        "essage"
      ],
      [
        "S",
        "u"
      ],
      [
        "Task",
        "Message"
      ],
      [
        "ge",
        "t"
      ],
      [
        "on",
        "e"
      ],
      [
        "nc",
        "y"
      ],
      [
        "Su",
        "ccess"
      ],
      [
        "_",
        "s"
      ],
      [
        "_c",
        "ount"
      ],
      [
        "_",
        "a"
      ],
      [
        "us",
        "er"
      ],
      [
        "e",
        "st"
      ],
      [
        "s",
        "ing"
      ],
      [
        "d",
        "iv"
      ],
      [
        "rout",
        "e"
      ],
      [
        "\"",
        "/"
      ],
      [
        "App",
        "Result"
      ],
      [
        "b",
        "lo"
      ],
      [
        "or",
        "t"
      ],
      [
        "l",
        "ate"
      ],
      [
        "char",
        "ge"
      ],
      [
        "f",
        "a"
      ],
      [
        "c",
        "he"
      ],
      [
        "ail",
        "ure"
      ],
      [
        "D",
        "ashboard"
      ],
      [
        "i",
        "st"
      ],
      [
        "c",
        "re"
      ],
      [
        "o",
        "f"
      ],
      [
        "o",
        "k"
      ],
      [
        "he",
        "l"
      ],
      [
        "synt",
        "ax"
      ],
      [
        "*",
        "*"
      ],
      [
        "p",
        "revious"
      ],
      [
        "lt",
        "er"
      ],
      [
        "fi",
        "lter"
      ],
      [
        "\"",
        ","
      ],
      [
        "[",
        "@"
      ],
      [
        "u",
        "m"
      ],
      [
        "in",
        "com"
      ],
      [
        "incom",
        "ing"
      ],
      [
        "m",
        "it"
      ],
      [
        "ial",
        "iz"
      ],
      [
        "bo",
        "ol"
      ],
      [
        "par",
        "ser"
      ],
      [
        ":",
        "//"
      ],
      [
        "o",
        "w"
      ],
      [
        "ser",
        "ializ"
      ],
      [
        "c",
        "la"
      ],
      [
        "C",
        "P"
      ],
      [
        "M",
        "CP"
      ],
      [
        "ser",
        "t"
      ],
      [
        "_",
        "merge"
      ],
      [
        "m",
        "ar"
      ],
      [
        "F",
        "ailure"
      ],
      [
        "mcp",
        "_"
      ],
      [
        "th",
        "at"
      ],
      [
        "b",
        "r"
      ],
      [
        "_c",
        "ard"
      ],
      [
        "charge",
        "_card"
      ],
      [
        "m",
        "inimal"
      ],
      [
        "la",
        "ining"
      ],
      [
        "handl",
        "ing"
      ],
      [
        "exp",
        "laining"
      ],
      [
        "Con",
        "fig"
      ],
      [
        "je",
        "ct"
      ],
      [
        "R",
        "o"
      ],
      [
        "sett",
        "a"
      ],
      [
        "Ro",
        "setta"
      ],
      [
        "\"",
        "</"
      ],
      [
        ">",
        "\""
      ],
      [
        "cre",
        "ment"
      ],
      [
        "p",
        "an"
      ],
      [
        "in",
        "sert"
      ],
      [
        "dat",
        "abase"
      ],
      [
        "v",
        "e"
      ],
      [
        "s",
        "pan"
      ],
      [
        "imp",
        "ort"
      ],
      [
        "t",
        "ask"
      ],
      [
        "A",
        "g"
      ],
      [
        "y",
        "et"
      ],
      [
        "th",
        "is"
      ],
      [
        "p",
        "ers"
      ],
      [
        "Ag",
        "ent"
      ],
      [
        "iv",
        "e"
      ],
      [
        "l",
        "y"
      ],
      [
        "\"",
        ")."
      ],
      [
        "ms",
        "g"
      ],
      [
        "ncy",
        "ms"
      ],
      [
        "late",
        "ncyms"
      ],
      [
        "_",
        "and"
      ],
      [
        "blo",
        "ck"
      ],
      [
        "b",
        "ro"
      ],
      [
        "V",
        "i"
      ],
      [
        "h",
        "1"
      ],
      [
        "i",
        "x"
      ],
      [
        "Merge",
        "Error"
      ],
      [
        "Vi",
        "ew"
      ],
      [
        "de",
        "l"
      ],
      [
        "E",
        "vent"
      ],
      [
        "F",
        "ix"
      ],
      [
        "bro",
        "ken"
      ],
      [
        "Re",
        "ad"
      ],
      [
        "S",
        "ession"
      ],
      [
        "Session",
        "Event"
      ],
      [
        "con",
        "fig"
      ],
      [
        "lo",
        "g"
      ],
      [
        "i",
        "es"
      ],
      [
        "u",
        "i"
      ],
      [
        "m",
        "a"
      ],
      [
        "p",
        "ri"
      ],
      [
        "tra",
        "de"
      ],
      [
        "_",
        "user"
      ],
      [
        "to",
        "ken"
      ],
      [
        "re",
        "ser"
      ],
      [
        "ck",
        "out"
      ],
      [
        "ste",
        "m"
      ],
      [
        "at",
        "form"
      ],
      [
        "reser",
        "ve"
      ],
      [
        "_",
        "se"
      ],
      [
        "0",
        "4"
      ],
      [
        "sh",
        "a"
      ],
      [
        "ur",
        "able"
      ],
      [
        "k",
        "e"
      ],
      [
        "is",
        "sing"
      ],
      [
        "do",
        "c"
      ],
      [
        "ag",
        "ent"
      ],
      [
        "i",
        "de"
      ],
      [
        "_",
        "file"
      ],
      [
        "In",
        "valid"
      ],
      [
        "read",
        "_file"
      ],
      [
        "abase",
        "Config"
      ],
      [
        "Dat",
        "abaseConfig"
      ],
      [
        "w",
        "he"
      ],
      [
        "sha",
        "pe"
      ],
      [
        "Dat",
        "a"
      ],
      [
        "in",
        "valid"
      ],
      [
        "s",
        "s"
      ],
      [
        "s",
        "ur"
      ],
      [
        "br",
        "a"
      ],
      [
        "whe",
        "re"
      ],
      [
        "Inventory",
        "Actor"
      ],
      [
        "b",
        "ase"
      ],
      [
        "p",
        "er"
      ],
      [
        "ou",
        "nd"
      ],
      [
        "()",
        ")"
      ],
      [
        "un",
        "ion"
      ],
      [
        "kind",
        "_b"
      ],
      [
        "kind",
        "_a"
      ],
      [
        "Inventory",
        "St"
      ],
      [
        "li",
        "ed"
      ],
      [
        "Re",
        "ject"
      ],
      [
        "App",
        "lied"
      ],
      [
        "InventorySt",
        "ack"
      ],
      [
        "Reject",
        "ed"
      ],
      [
        "i",
        "cal"
      ],
      [
        "mple",
        "ment"
      ],
      [
        "li",
        "mit"
      ],
      [
        "t",
        "s"
      ],
      [
        "v",
        "er"
      ],
      [
        "_",
        "ur"
      ],
      [
        "str",
        "ing"
      ],
      [
        "p",
        "lo"
      ],
      [
        "s",
        "pa"
      ],
      [
        "w",
        "n"
      ],
      [
        "plo",
        "y"
      ],
      [
        "s",
        "ession"
      ],
      [
        "c",
        "an"
      ],
      [
        "str",
        "at"
      ],
      [
        "pers",
        "ist"
      ],
      [
        "W",
        "or"
      ],
      [
        "Wor",
        "k"
      ],
      [
        "serializ",
        "e"
      ],
      [
        "spa",
        "wn"
      ],
      [
        "ste",
        "p"
      ],
      [
        "b",
        "e"
      ],
      [
        "pl",
        "us"
      ],
      [
        "ke",
        "y"
      ],
      [
        "ma",
        "in"
      ],
      [
        "I",
        "mplement"
      ],
      [
        "hel",
        "lo"
      ],
      [
        "ation",
        "s"
      ],
      [
        "s",
        "um"
      ],
      [
        "m",
        "on"
      ],
      [
        "cla",
        "ss"
      ],
      [
        "U",
        "I"
      ],
      [
        "N",
        "ame"
      ],
      [
        "or",
        "d"
      ],
      [
        "wor",
        "d"
      ],
      [
        "key",
        "word"
      ],
      [
        "return",
        "s"
      ],
      [
        "a",
        "nt"
      ],
      [
        "i",
        "ent"
      ],
      [
        "Read",
        "y"
      ],
      [
        "l",
        "d"
      ],
      [
        "H",
        "and"
      ],
      [
        "p",
        "es"
      ],
      [
        "}",
        ")"
      ],
      [
        "}",
        "))"
      ],
      [
        "se",
        "ed"
      ],
      [
        "t",
        "x"
      ],
      [
        "type",
        "d"
      ],
      [
        "che",
        "ckout"
      ],
      [
        "in",
        "crement"
      ],
      [
        "or",
        "ient"
      ],
      [
        "ro",
        "m"
      ],
      [
        "orient",
        "ed"
      ],
      [
        "val",
        "u"
      ],
      [
        "el",
        "se"
      ],
      [
        "com",
        "ment"
      ],
      [
        "d",
        "urable"
      ],
      [
        "ty",
        "pes"
      ],
      [
        "M",
        "o"
      ],
      [
        "ant",
        "s"
      ],
      [
        "on",
        "g"
      ],
      [
        "c",
        "ent"
      ],
      [
        "not",
        "es"
      ],
      [
        "ap",
        "p"
      ],
      [
        "Mo",
        "del"
      ],
      [
        "pe",
        "l"
      ],
      [
        "ro",
        "w"
      ],
      [
        "sur",
        "fa"
      ],
      [
        "pro",
        "pose"
      ],
      [
        "f",
        "rom"
      ],
      [
        "valu",
        "es"
      ],
      [
        "r",
        "on"
      ],
      [
        "p",
        "ur"
      ],
      [
        "pur",
        "pose"
      ],
      [
        "_",
        "re"
      ],
      [
        "it",
        "ies"
      ],
      [
        "\"",
        "+"
      ],
      [
        "\"",
        ":\""
      ],
      [
        "M",
        "et"
      ],
      [
        "_",
        "token"
      ],
      [
        "lo",
        "ts"
      ],
      [
        "lay",
        "ers"
      ],
      [
        "actor",
        "_layer"
      ],
      [
        "mcp",
        "_layer"
      ],
      [
        "Inventory",
        "View"
      ],
      [
        "workflow",
        "_layer"
      ],
      [
        "ash",
        "Met"
      ],
      [
        "St",
        "ashMet"
      ],
      [
        "capability",
        "_layer"
      ],
      [
        "capability",
        "_token"
      ],
      [
        "pl",
        "atform"
      ],
      [
        "_s",
        "lots"
      ],
      [
        "ui",
        "_layer"
      ],
      [
        "reserve",
        "_slots"
      ],
      [
        "propose",
        "_merge"
      ],
      [
        "StashMet",
        "er"
      ],
      [
        "ure",
        "d"
      ],
      [
        "w",
        "h"
      ],
      [
        "pri",
        "mar"
      ],
      [
        "\\",
        "\""
      ],
      [
        "o",
        "ver"
      ],
      [
        "=",
        "\""
      ],
      [
        "0",
        "6"
      ],
      [
        "r",
        "un"
      ],
      [
        "primar",
        "y"
      ],
      [
        "over",
        "flow"
      ],
      [
        "M",
        "inimal"
      ],
      [
        "hand",
        "le"
      ],
      [
        "en",
        "ce"
      ],
      [
        "val",
        "ue"
      ],
      [
        "M",
        "issing"
      ],
      [
        "ad",
        "d"
      ],
      [
        "capabil",
        "ities"
      ],
      [
        "log",
        "ic"
      ],
      [
        "i",
        "led"
      ],
      [
        "g",
        "r"
      ],
      [
        "vi",
        "ron"
      ],
      [
        "Wr",
        "ong"
      ],
      [
        "persist",
        "ence"
      ],
      [
        "viron",
        "ment"
      ],
      [
        "u",
        "se"
      ],
      [
        "an",
        "g"
      ],
      [
        "a",
        "re"
      ],
      [
        "est",
        "ed"
      ],
      [
        "m",
        "essage"
      ],
      [
        "d",
        "i"
      ],
      [
        "\"",
        ">"
      ],
      [
        "C",
        "ap"
      ],
      [
        "K",
        "ind"
      ],
      [
        "O",
        "ut"
      ],
      [
        "_",
        "stack"
      ],
      [
        "p",
        "ure"
      ],
      [
        "is",
        "on"
      ],
      [
        "ar",
        "ison"
      ],
      [
        "table",
        "_layer"
      ],
      [
        "en",
        "vironment"
      ],
      [
        "comp",
        "arison"
      ],
      [
        "file",
        "_ur"
      ],
      [
        "com",
        "e"
      ],
      [
        "qty",
        "_b"
      ],
      [
        "qty",
        "_a"
      ],
      [
        "Merge",
        "Out"
      ],
      [
        "_and",
        "_merge"
      ],
      [
        "Invalid",
        "Cap"
      ],
      [
        "types",
        "_and_merge"
      ],
      [
        "Wrong",
        "Kind"
      ],
      [
        "file_ur",
        "i"
      ],
      [
        "MergeOut",
        "come"
      ],
      [
        "o",
        "per"
      ],
      [
        "s",
        "o"
      ],
      [
        "le",
        "ct"
      ],
      [
        "se",
        "lect"
      ],
      [
        "ord",
        "er"
      ],
      [
        "pro",
        "d"
      ],
      [
        "ploy",
        "ment"
      ],
      [
        "M",
        "s"
      ],
      [
        "gr",
        "am"
      ],
      [
        "=",
        "="
      ],
      [
        "the",
        "m"
      ],
      [
        "payload",
        "s"
      ],
      [
        "do",
        "es"
      ],
      [
        "wh",
        "at"
      ],
      [
        "l",
        "ive"
      ],
      [
        "p",
        "r"
      ],
      [
        "s",
        "co"
      ],
      [
        "sy",
        "nc"
      ],
      [
        "sy",
        "stem"
      ],
      [
        "_b",
        "y"
      ],
      [
        "session",
        "id"
      ],
      [
        "row",
        "s"
      ],
      [
        "order",
        "_by"
      ],
      [
        "sco",
        "pe"
      ],
      [
        "ar",
        "i"
      ],
      [
        "on",
        "ly"
      ],
      [
        "S",
        "tr"
      ],
      [
        "i",
        "pel"
      ],
      [
        "r",
        "u"
      ],
      [
        "er",
        "Agent"
      ],
      [
        "le",
        "Task"
      ],
      [
        "Work",
        "erAgent"
      ],
      [
        "Hand",
        "leTask"
      ],
      [
        "Str",
        "uct"
      ],
      [
        "ipel",
        "ine"
      ],
      [
        "li",
        "st"
      ],
      [
        "read",
        "y"
      ],
      [
        "N",
        "ow"
      ],
      [
        "de",
        "mo"
      ],
      [
        "8",
        "0"
      ],
      [
        "doc",
        "string"
      ],
      [
        "pr",
        "int"
      ],
      [
        "v",
        "ari"
      ],
      [
        "t",
        "est"
      ],
      [
        "surfa",
        "ce"
      ],
      [
        "/",
        ">"
      ],
      [
        "=",
        "["
      ],
      [
        "P",
        "ipeline"
      ],
      [
        "_",
        "result"
      ],
      [
        "_",
        "agent"
      ],
      [
        "_",
        "ready"
      ],
      [
        "d",
        "one"
      ],
      [
        "ex",
        "pose"
      ],
      [
        "data",
        "_agent"
      ],
      [
        "class",
        "Name"
      ],
      [
        "Ms",
        "g"
      ],
      [
        "gram",
        "mar"
      ],
      [
        "Struct",
        "ured"
      ],
      [
        "data_agent",
        "_ready"
      ],
      [
        "_",
        "actor"
      ],
      [
        "b",
        "as"
      ],
      [
        "ic",
        "_actor"
      ],
      [
        "_and",
        "_se"
      ],
      [
        "spawn",
        "_and_se"
      ],
      [
        "bas",
        "ic_actor"
      ],
      [
        "spawn_and_se",
        "nd"
      ],
      [
        "st",
        "d"
      ],
      [
        "Counter",
        "Actor"
      ],
      [
        "H",
        "el"
      ],
      [
        "P",
        "age"
      ],
      [
        "Hel",
        "lo"
      ],
      [
        "c",
        "es"
      ],
      [
        "ge",
        "d"
      ],
      [
        "res",
        "s"
      ],
      [
        "or",
        "che"
      ],
      [
        "ap",
        "i"
      ],
      [
        "function",
        "s"
      ],
      [
        "m",
        "e"
      ],
      [
        "ex",
        "t"
      ],
      [
        "p",
        "la"
      ],
      [
        "`",
        "@"
      ],
      [
        "s",
        "ide"
      ],
      [
        "block",
        "s"
      ],
      [
        "`",
        ")."
      ],
      [
        "_",
        "f"
      ],
      [
        "v",
        "0"
      ],
      [
        "ou",
        "ld"
      ],
      [
        "sh",
        "ould"
      ],
      [
        "0",
        "0"
      ],
      [
        "ar",
        "t"
      ],
      [
        "vari",
        "ants"
      ],
      [
        "oper",
        "ations"
      ],
      [
        "strat",
        "or"
      ],
      [
        "orche",
        "strator"
      ],
      [
        "'",
        ")"
      ],
      [
        "c",
        "lo"
      ],
      [
        "bra",
        "ce"
      ],
      [
        "clo",
        "sing"
      ],
      [
        "C",
        "h"
      ],
      [
        "ion",
        "s"
      ],
      [
        "f",
        "ind"
      ],
      [
        "m",
        "an"
      ],
      [
        "ag",
        "es"
      ],
      [
        ".",
        "*"
      ],
      [
        "T",
        "able"
      ],
      [
        "en",
        "d"
      ],
      [
        "T",
        "y"
      ],
      [
        "par",
        "se"
      ],
      [
        "_",
        "config"
      ],
      [
        "st",
        "ag"
      ],
      [
        "mcp_",
        "tool"
      ],
      [
        "mcp_",
        "resource"
      ],
      [
        "orchestrator",
        "_config"
      ],
      [
        "stag",
        "ing"
      ],
      [
        "t",
        "ag"
      ],
      [
        "tag",
        "ged"
      ],
      [
        "mo",
        "d"
      ],
      [
        "el",
        "d"
      ],
      [
        "fi",
        "eld"
      ],
      [
        "St",
        "atus"
      ],
      [
        "Dashboard",
        "Status"
      ],
      [
        "base",
        "d"
      ],
      [
        "n",
        "ested"
      ],
      [
        "f",
        "al"
      ],
      [
        "fal",
        "se"
      ],
      [
        "str",
        "ate"
      ],
      [
        "De",
        "mon"
      ],
      [
        "d",
        "ashboard"
      ],
      [
        "Dashboard",
        "View"
      ],
      [
        "Data",
        "Ch"
      ],
      [
        "DataCh",
        "art"
      ],
      [
        "t",
        "er"
      ],
      [
        "de",
        "d"
      ],
      [
        "2",
        "5"
      ],
      [
        "C",
        "R"
      ],
      [
        "C",
        "ru"
      ],
      [
        "U",
        "D"
      ],
      [
        "U",
        "n"
      ],
      [
        "u",
        "le"
      ],
      [
        "on",
        "ical"
      ],
      [
        "us",
        "ers"
      ],
      [
        "Ap",
        "i"
      ],
      [
        "active",
        "_user"
      ],
      [
        "user",
        "_count"
      ],
      [
        "can",
        "onical"
      ],
      [
        "seed",
        "_user"
      ],
      [
        "mod",
        "ule"
      ],
      [
        "CR",
        "UD"
      ],
      [
        "Cru",
        "d"
      ],
      [
        "Un",
        "it"
      ],
      [
        "active_user",
        "_count"
      ],
      [
        "se",
        "e"
      ],
      [
        "in",
        "it"
      ],
      [
        "n",
        "um"
      ],
      [
        "tra",
        "it"
      ],
      [
        "mo",
        "de"
      ],
      [
        "m",
        "ount"
      ],
      [
        "par",
        "ame"
      ],
      [
        "Ty",
        "pe"
      ],
      [
        "ge",
        "bra"
      ],
      [
        "In",
        "crement"
      ],
      [
        "load",
        "_se"
      ],
      [
        "imp",
        "l"
      ],
      [
        "gebra",
        "ic"
      ],
      [
        "load_se",
        "ction"
      ],
      [
        "A",
        "l"
      ],
      [
        "c",
        "ing"
      ],
      [
        "serializ",
        "ation"
      ],
      [
        "exp",
        "ress"
      ],
      [
        "H",
        "T"
      ],
      [
        "}",
        ","
      ],
      [
        "re",
        "tr"
      ],
      [
        "iv",
        "es"
      ],
      [
        "\"/",
        "\""
      ],
      [
        "b",
        "y"
      ],
      [
        "import",
        "_"
      ],
      [
        "Demon",
        "strate"
      ],
      [
        "pe",
        "nd"
      ],
      [
        "not",
        "_f"
      ],
      [
        "load",
        "er"
      ],
      [
        "pend",
        "ing"
      ],
      [
        "not_f",
        "ound"
      ],
      [
        "S",
        "y"
      ],
      [
        "_",
        "app"
      ],
      [
        "serialize",
        "_app"
      ],
      [
        "Al",
        "gebraic"
      ],
      [
        "Sy",
        "stem"
      ],
      [
        "serialize_app",
        "_result"
      ],
      [
        "j",
        "s"
      ],
      [
        "f",
        "u"
      ],
      [
        "c",
        "li"
      ],
      [
        "o",
        "me"
      ],
      [
        "mo",
        "del"
      ],
      [
        "T",
        "P"
      ],
      [
        "`",
        "."
      ],
      [
        "HT",
        "TP"
      ],
      [
        "`",
        ","
      ],
      [
        "s",
        "ource"
      ],
      [
        "u",
        "ment"
      ],
      [
        "T",
        "he"
      ],
      [
        "(",
        "`"
      ],
      [
        "ch",
        "o"
      ],
      [
        "mit",
        "ives"
      ],
      [
        "pri",
        "mitives"
      ],
      [
        "q",
        "ue"
      ],
      [
        "doc",
        "ument"
      ],
      [
        "li",
        "c"
      ],
      [
        "init",
        "ial"
      ],
      [
        "h",
        "ow"
      ],
      [
        "at",
        "ive"
      ],
      [
        "w",
        "r"
      ],
      [
        "s",
        "core"
      ],
      [
        "v",
        "ery"
      ],
      [
        "test",
        "s"
      ],
      [
        "l",
        "l"
      ],
      [
        "ex",
        "po"
      ],
      [
        "expo",
        "s"
      ],
      [
        "que",
        "st"
      ],
      [
        "l",
        "ang"
      ],
      [
        "u",
        "age"
      ],
      [
        "de",
        "cla"
      ],
      [
        "lang",
        "uage"
      ],
      [
        "de",
        "mon"
      ],
      [
        "if",
        "y"
      ],
      [
        "P",
        "ro"
      ],
      [
        "n",
        "o"
      ],
      [
        "lo",
        "ot"
      ],
      [
        "con",
        "curre"
      ],
      [
        "fa",
        "cing"
      ],
      [
        "concurre",
        "ncy"
      ],
      [
        "m",
        "issing"
      ],
      [
        "tool",
        "s"
      ],
      [
        "retr",
        "y"
      ],
      [
        "f",
        "t"
      ],
      [
        "decla",
        "r"
      ],
      [
        "U",
        "R"
      ],
      [
        "mp",
        "ot"
      ],
      [
        "ide",
        "mpot"
      ],
      [
        "T",
        "o"
      ],
      [
        "strat",
        "ing"
      ],
      [
        "demon",
        "strating"
      ],
      [
        "b",
        "ut"
      ],
      [
        "ow",
        "n"
      ],
      [
        "\"",
        "\""
      ],
      [
        "\"",
        "}"
      ],
      [
        ")",
        ","
      ],
      [
        ">",
        "{"
      ],
      [
        "P",
        "l"
      ],
      [
        "_",
        "ok"
      ],
      [
        "_",
        "trade"
      ],
      [
        "g",
        "ated"
      ],
      [
        "s",
        "v"
      ],
      [
        "re",
        "di"
      ],
      [
        "le",
        "_trade"
      ],
      [
        "comp",
        "act"
      ],
      [
        "Re",
        "quest"
      ],
      [
        "_c",
        "sv"
      ],
      [
        "sett",
        "led"
      ],
      [
        "sett",
        "le_trade"
      ],
      [
        "Merge",
        "Request"
      ],
      [
        "fa",
        "iled"
      ],
      [
        "import",
        "ed"
      ],
      [
        "reserve",
        "_ok"
      ],
      [
        "\"+",
        "\""
      ],
      [
        "import_",
        "loot"
      ],
      [
        "expos",
        "ure"
      ],
      [
        "Pro",
        "pose"
      ],
      [
        "\"}",
        "</"
      ],
      [
        ">{",
        "\""
      ],
      [
        "Pl",
        "atform"
      ],
      [
        "import_loot",
        "_csv"
      ],
      [
        "e",
        "vent"
      ],
      [
        "o",
        "re"
      ],
      [
        "u",
        "g"
      ],
      [
        "con",
        "t"
      ],
      [
        "dis",
        "co"
      ],
      [
        "our",
        "ces"
      ],
      [
        "1",
        "2"
      ],
      [
        "r",
        "ight"
      ],
      [
        "age",
        "ment"
      ],
      [
        "man",
        "agement"
      ],
      [
        "pl",
        "an"
      ],
      [
        "h",
        "y"
      ],
      [
        "T",
        "h"
      ],
      [
        "y",
        "le"
      ],
      [
        "st",
        "yle"
      ],
      [
        "res",
        "ources"
      ],
      [
        "G",
        "E"
      ],
      [
        "N",
        "ot"
      ],
      [
        "at",
        "ic"
      ],
      [
        "le",
        "ft"
      ],
      [
        "en",
        "able"
      ],
      [
        "UR",
        "I"
      ],
      [
        "disco",
        "very"
      ],
      [
        "de",
        "ployment"
      ],
      [
        "S",
        "e"
      ],
      [
        "sh",
        "own"
      ],
      [
        "document",
        "ation"
      ],
      [
        "I",
        "R"
      ],
      [
        "a",
        "ining"
      ],
      [
        "b",
        "ject"
      ],
      [
        "e",
        "q"
      ],
      [
        "g",
        "t"
      ],
      [
        "o",
        "bject"
      ],
      [
        "p",
        "ack"
      ],
      [
        "ch",
        "aining"
      ],
      [
        "pro",
        "je"
      ],
      [
        "br",
        "id"
      ],
      [
        "redi",
        "cate"
      ],
      [
        "Th",
        "is"
      ],
      [
        "proje",
        "ction"
      ],
      [
        "pro",
        "cess"
      ],
      [
        "!",
        "="
      ],
      [
        "\"",
        "@"
      ],
      [
        "C",
        "ore"
      ],
      [
        "E",
        "cho"
      ],
      [
        "M",
        "cp"
      ],
      [
        "S",
        "how"
      ],
      [
        "_",
        "status"
      ],
      [
        "ent",
        "s"
      ],
      [
        "ol",
        "s"
      ],
      [
        "ck",
        "ing"
      ],
      [
        "stack",
        "_count"
      ],
      [
        "golden",
        "_status"
      ],
      [
        "dis",
        "k"
      ],
      [
        "merge",
        "_stack"
      ],
      [
        "St",
        "atic"
      ],
      [
        "error",
        "s"
      ],
      [
        "blo",
        "b"
      ],
      [
        "://",
        "\""
      ],
      [
        "mcp_",
        "golden_status"
      ],
      [
        "Read",
        "s"
      ],
      [
        "log",
        "ical"
      ],
      [
        "seed",
        "_stack"
      ],
      [
        "demo",
        "s"
      ],
      [
        "see",
        "ded"
      ],
      [
        "declar",
        "ations"
      ],
      [
        "To",
        "ols"
      ],
      [
        "cont",
        "ents"
      ],
      [
        "merge_stack",
        "s"
      ],
      [
        "l",
        "ib"
      ],
      [
        "Re",
        "p"
      ],
      [
        "hel",
        "pers"
      ],
      [
        "t",
        "on"
      ],
      [
        "for",
        "ms"
      ],
      [
        "res",
        "ent"
      ],
      [
        "iz",
        "e"
      ],
      [
        "shape",
        "d"
      ],
      [
        "pla",
        "in"
      ],
      [
        "but",
        "ton"
      ],
      [
        "o",
        "se"
      ],
      [
        "5",
        "0"
      ],
      [
        "D",
        "B"
      ],
      [
        "N",
        "ative"
      ],
      [
        "P",
        "redicate"
      ],
      [
        "h",
        "ot"
      ],
      [
        "p",
        "u"
      ],
      [
        "}",
        ")."
      ],
      [
        "de",
        "sc"
      ],
      [
        "()",
        ","
      ],
      [
        "()",
        "."
      ],
      [
        "example",
        "s"
      ],
      [
        "po",
        "pu"
      ],
      [
        "ession",
        "s"
      ],
      [
        "_s",
        "essions"
      ],
      [
        "event",
        "s"
      ],
      [
        "hy",
        "brid"
      ],
      [
        "hot",
        "_sessions"
      ],
      [
        "popu",
        "li"
      ],
      [
        "ro",
        "le"
      ],
      [
        "po",
        "st"
      ],
      [
        "R",
        "out"
      ],
      [
        "Rout",
        "e"
      ],
      [
        "_",
        "de"
      ],
      [
        "_",
        "database"
      ],
      [
        "_",
        "enable"
      ],
      [
        "a",
        "_count"
      ],
      [
        "b",
        "ug"
      ],
      [
        "i",
        "o"
      ],
      [
        "p",
        "s"
      ],
      [
        "p",
        "lic"
      ],
      [
        "q",
        "l"
      ],
      [
        "s",
        "ample"
      ],
      [
        "s",
        "ql"
      ],
      [
        "t",
        "ur"
      ],
      [
        "ing",
        "s"
      ],
      [
        "ol",
        "_s"
      ],
      [
        "ur",
        "l"
      ],
      [
        "po",
        "ol_s"
      ],
      [
        "De",
        "ploy"
      ],
      [
        "De",
        "ployment"
      ],
      [
        "sett",
        "ings"
      ],
      [
        "_ur",
        "l"
      ],
      [
        "_re",
        "plic"
      ],
      [
        "prod",
        "_de"
      ],
      [
        "prod",
        "_replic"
      ],
      [
        "lib",
        "sql"
      ],
      [
        "Rep",
        "resent"
      ],
      [
        "_database",
        "_url"
      ],
      [
        "_enable",
        "d"
      ],
      [
        "bug",
        "_enabled"
      ],
      [
        "sample",
        "_database_url"
      ],
      [
        "tur",
        "so"
      ],
      [
        "pool_s",
        "ize"
      ],
      [
        "prod_de",
        "bug_enabled"
      ],
      [
        "prod_replic",
        "a_count"
      ],
      [
        "t",
        "w"
      ],
      [
        "_",
        "at"
      ],
      [
        "ated",
        "_at"
      ],
      [
        "no",
        "de"
      ],
      [
        "count",
        "er"
      ],
      [
        "Work",
        "flow"
      ],
      [
        "parame",
        "ter"
      ],
      [
        ">",
        "="
      ],
      [
        "p",
        "ing"
      ],
      [
        "la",
        "r"
      ],
      [
        "F",
        "ound"
      ],
      [
        "H",
        "ome"
      ],
      [
        "P",
        "end"
      ],
      [
        "se",
        "ction"
      ],
      [
        "Error",
        "Page"
      ],
      [
        "load",
        "ing"
      ],
      [
        "Not",
        "Found"
      ],
      [
        "Se",
        "ction"
      ],
      [
        "Route",
        "Pend"
      ],
      [
        "NotFound",
        "Page"
      ],
      [
        "RoutePend",
        "ing"
      ],
      [
        "re",
        "st"
      ],
      [
        "S",
        "T"
      ],
      [
        "tw",
        "o"
      ],
      [
        "m",
        "es"
      ],
      [
        "int",
        "e"
      ],
      [
        "wor",
        "ld"
      ],
      [
        "comp",
        "ose"
      ],
      [
        "idempot",
        "ent"
      ],
      [
        "mes",
        "h"
      ],
      [
        "let",
        "t"
      ],
      [
        "lar",
        "ge"
      ],
      [
        "p",
        "age"
      ],
      [
        "re",
        "qu"
      ],
      [
        "A",
        "I"
      ],
      [
        "re",
        "d"
      ],
      [
        "u",
        "late"
      ],
      [
        "ang",
        "es"
      ],
      [
        "inte",
        "g"
      ],
      [
        "!",
        "\""
      ],
      [
        "\"",
        "!\""
      ],
      [
        "1",
        "00"
      ],
      [
        "2",
        "4"
      ],
      [
        "A",
        "mount"
      ],
      [
        "C",
        "he"
      ],
      [
        "D",
        "urable"
      ],
      [
        "F",
        "a"
      ],
      [
        "_",
        "12"
      ],
      [
        "n",
        "ext"
      ],
      [
        "at",
        "or"
      ],
      [
        "to",
        "o"
      ],
      [
        "as",
        "s"
      ],
      [
        "work",
        "er"
      ],
      [
        "tx",
        "_12"
      ],
      [
        "pack",
        "ages"
      ],
      [
        "100",
        "0"
      ],
      [
        "Che",
        "ckout"
      ],
      [
        "Fa",
        "iled"
      ],
      [
        "tx_12",
        "3"
      ],
      [
        "con",
        "d"
      ],
      [
        "b",
        "ox"
      ],
      [
        "se",
        "d"
      ],
      [
        "ch",
        "anges"
      ],
      [
        "\"",
        "]"
      ],
      [
        "2",
        "2"
      ],
      [
        "A",
        "GE"
      ],
      [
        "C",
        "al"
      ],
      [
        "[",
        "\""
      ],
      [
        "_",
        "notes"
      ],
      [
        "c",
        "ulate"
      ],
      [
        "p",
        "ine"
      ],
      [
        "re",
        "cent"
      ],
      [
        "al",
        "pine"
      ],
      [
        "en",
        "v"
      ],
      [
        "not",
        "e"
      ],
      [
        "cur",
        "l"
      ],
      [
        "Re",
        "cent"
      ],
      [
        "get",
        "_re"
      ],
      [
        "hel",
        "l"
      ],
      [
        "cent",
        "_notes"
      ],
      [
        "80",
        "80"
      ],
      [
        "fu",
        "ll"
      ],
      [
        "ST",
        "AGE"
      ],
      [
        "integ",
        "ers"
      ],
      [
        "Cal",
        "culate"
      ],
      [
        "get_re",
        "cent_notes"
      ],
      [
        "L",
        "o"
      ],
      [
        "U",
        "i"
      ],
      [
        "`",
        "->"
      ],
      [
        "`",
        ").\""
      ],
      [
        "m",
        "ail"
      ],
      [
        "ge",
        "n"
      ],
      [
        "ad",
        "ing"
      ],
      [
        "pro",
        "ps"
      ],
      [
        "char",
        "t"
      ],
      [
        "js",
        "x"
      ],
      [
        "cli",
        "ent"
      ],
      [
        "Lo",
        "ading"
      ],
      [
        "`->",
        "`).\""
      ],
      [
        "mail",
        "box"
      ],
      [
        "c",
        "or"
      ],
      [
        "an",
        "not"
      ],
      [
        "b",
        "ack"
      ],
      [
        "de",
        "x"
      ],
      [
        "it",
        "ion"
      ],
      [
        "int",
        "er"
      ],
      [
        "m",
        "ess"
      ],
      [
        "wr",
        "ap"
      ],
      [
        "mess",
        "ages"
      ],
      [
        "g",
        "u"
      ],
      [
        "y",
        "ou"
      ],
      [
        "gu",
        "ard"
      ],
      [
        "c",
        "ord"
      ],
      [
        "h",
        "ist"
      ],
      [
        "o",
        "res"
      ],
      [
        "re",
        "set"
      ],
      [
        "re",
        "cord"
      ],
      [
        "at",
        "ible"
      ],
      [
        "tra",
        "cking"
      ],
      [
        "comp",
        "atible"
      ],
      [
        "ist",
        "ants"
      ],
      [
        "of",
        "f"
      ],
      [
        "persist",
        "ent"
      ],
      [
        "rest",
        "ores"
      ],
      [
        "ass",
        "istants"
      ],
      [
        "hist",
        "ory"
      ],
      [
        "record",
        "s"
      ],
      [
        "b",
        "ound"
      ],
      [
        "i",
        "ed"
      ],
      [
        "t",
        "ext"
      ],
      [
        "in",
        "dex"
      ],
      [
        "cond",
        "ition"
      ],
      [
        "p",
        "ol"
      ],
      [
        "in",
        "side"
      ],
      [
        "_s",
        "core"
      ],
      [
        "class",
        "ify"
      ],
      [
        "pla",
        "ce"
      ],
      [
        "classify",
        "_score"
      ],
      [
        "bound",
        "ar"
      ],
      [
        "po",
        "int"
      ],
      [
        "express",
        "ions"
      ],
      [
        "p",
        "ut"
      ],
      [
        "wrap",
        "per"
      ],
      [
        "c",
        "n"
      ],
      [
        "ad",
        "cn"
      ],
      [
        "pol",
        "ic"
      ],
      [
        "l",
        "er"
      ],
      [
        "p",
        "as"
      ],
      [
        "Con",
        "current"
      ],
      [
        "Hand",
        "ler"
      ],
      [
        "increment",
        "s"
      ],
      [
        "parse",
        "d"
      ],
      [
        "pas",
        "sed"
      ],
      [
        "i",
        "le"
      ],
      [
        "re",
        "ct"
      ],
      [
        "de",
        "cor"
      ],
      [
        "decor",
        "ator"
      ],
      [
        "d",
        "er"
      ],
      [
        ":",
        "\\\""
      ],
      [
        "_",
        "text"
      ],
      [
        "al",
        "s"
      ],
      [
        "st_",
        "js"
      ],
      [
        "po",
        "st_js"
      ],
      [
        "http",
        "s"
      ],
      [
        "get",
        "_text"
      ],
      [
        "sur",
        "charge"
      ],
      [
        "\\\"",
        ":\\\""
      ],
      [
        "parse",
        "_"
      ],
      [
        "post",
        "ed"
      ],
      [
        "condition",
        "als"
      ],
      [
        "post_js",
        "on"
      ],
      [
        ":",
        "**"
      ],
      [
        "p",
        "re"
      ],
      [
        "at",
        "es"
      ],
      [
        "mo",
        "st"
      ],
      [
        "u",
        "b"
      ],
      [
        "st",
        "ub"
      ],
      [
        "qu",
        "er"
      ],
      [
        "cli",
        "ck"
      ],
      [
        "annot",
        "ation"
      ],
      [
        "is",
        "s"
      ],
      [
        "end",
        "point"
      ],
      [
        "I",
        "f"
      ],
      [
        "in",
        "put"
      ],
      [
        "valid",
        "ation"
      ],
      [
        "r",
        "ate"
      ],
      [
        "t",
        "ers"
      ],
      [
        "u",
        "st"
      ],
      [
        "parame",
        "ters"
      ],
      [
        "t",
        "im"
      ],
      [
        "Y",
        "ou"
      ],
      [
        "f",
        "e"
      ],
      [
        "n",
        "am"
      ],
      [
        "s",
        "m"
      ],
      [
        "=",
        "{"
      ],
      [
        "if",
        "est"
      ],
      [
        "en",
        "s"
      ],
      [
        "man",
        "ifest"
      ],
      [
        "m",
        "ap"
      ],
      [
        "y",
        "our"
      ],
      [
        "vi",
        "a"
      ],
      [
        "g",
        "in"
      ],
      [
        "ter",
        "n"
      ],
      [
        "gen",
        "er"
      ],
      [
        "f",
        "requ"
      ],
      [
        "ent",
        "ly"
      ],
      [
        "ser",
        "ver"
      ],
      [
        "frequ",
        "ently"
      ],
      [
        "in",
        "to"
      ],
      [
        "field",
        "s"
      ],
      [
        "c",
        "le"
      ],
      [
        "he",
        "ma"
      ],
      [
        "sc",
        "hema"
      ],
      [
        "L",
        "L"
      ],
      [
        "W",
        "e"
      ],
      [
        "b",
        "ile"
      ],
      [
        "}",
        ">\""
      ],
      [
        "le",
        "ment"
      ],
      [
        "co",
        "ve"
      ],
      [
        "rout",
        "ing"
      ],
      [
        "mo",
        "bile"
      ],
      [
        "cove",
        "red"
      ],
      [
        "g",
        "ion"
      ],
      [
        "ab",
        "use"
      ],
      [
        "pe",
        "n"
      ],
      [
        "fi",
        "c"
      ],
      [
        "descript",
        "ive"
      ],
      [
        "pa",
        "gin"
      ],
      [
        "http",
        "_result"
      ],
      [
        "filter",
        "ing"
      ],
      [
        "limit",
        "ing"
      ],
      [
        "_re",
        "gion"
      ],
      [
        "off",
        "set"
      ],
      [
        "pre",
        "vent"
      ],
      [
        "pagin",
        "ation"
      ],
      [
        "http_result",
        "_region"
      ],
      [
        "de",
        "f"
      ],
      [
        "a",
        "mp"
      ],
      [
        "d",
        "ated_at"
      ],
      [
        "us",
        "es"
      ],
      [
        "up",
        "dated_at"
      ],
      [
        "est",
        "amp"
      ],
      [
        "cre",
        "ated_at"
      ],
      [
        "quer",
        "ied"
      ],
      [
        "tim",
        "estamp"
      ],
      [
        "i",
        "re"
      ],
      [
        "0",
        "7"
      ],
      [
        "N",
        "ested"
      ],
      [
        "_",
        "routes"
      ],
      [
        "a",
        "it"
      ],
      [
        "h",
        "ome"
      ],
      [
        "n",
        "f"
      ],
      [
        "s",
        "a"
      ],
      [
        "w",
        "ait"
      ],
      [
        "el",
        "y"
      ],
      [
        "surfa",
        "ces"
      ],
      [
        "nested",
        "_routes"
      ],
      [
        "retry",
        "able"
      ],
      [
        "full",
        "stack"
      ],
      [
        "boundar",
        "ies"
      ],
      [
        "sm",
        "all"
      ],
      [
        "cle",
        "an"
      ],
      [
        "We",
        "b"
      ],
      [
        "U",
        "se"
      ],
      [
        "i",
        "res"
      ],
      [
        "s",
        "es"
      ],
      [
        "an",
        "s"
      ],
      [
        "sh",
        "adcn"
      ],
      [
        "wr",
        "ite"
      ],
      [
        "M",
        "iss"
      ],
      [
        "pel",
        "led"
      ],
      [
        "Miss",
        "pelled"
      ],
      [
        "b",
        "in"
      ],
      [
        "pat",
        "tern"
      ],
      [
        "E",
        "lement"
      ],
      [
        "di",
        "rect"
      ],
      [
        "path",
        "s"
      ],
      [
        "polic",
        "ies"
      ],
      [
        "clean",
        "up"
      ],
      [
        "S",
        "hell"
      ],
      [
        "i",
        "p"
      ],
      [
        "s",
        "hell"
      ],
      [
        "tr",
        "ans"
      ],
      [
        "is",
        "_"
      ],
      [
        "fic",
        "ation"
      ],
      [
        "in",
        "f"
      ],
      [
        "ar",
        "row"
      ],
      [
        "fu",
        "l"
      ],
      [
        "w",
        "il"
      ],
      [
        "nam",
        "ed"
      ],
      [
        "b",
        "le"
      ],
      [
        "e",
        "c"
      ],
      [
        "m",
        "app"
      ],
      [
        "}",
        "\"</"
      ],
      [
        "mo",
        "di"
      ],
      [
        "LL",
        "M"
      ],
      [
        "mapp",
        "ing"
      ],
      [
        "modi",
        "fication"
      ],
      [
        "1",
        "3"
      ],
      [
        "N",
        "arrow"
      ],
      [
        "d",
        "ot"
      ],
      [
        "t",
        "ed"
      ],
      [
        "co",
        "mple"
      ],
      [
        "dot",
        "ted"
      ],
      [
        "a",
        "ccess"
      ],
      [
        "m",
        "in"
      ],
      [
        "v",
        "el"
      ],
      [
        "le",
        "vel"
      ],
      [
        "ide",
        "nt"
      ],
      [
        "g",
        "ing"
      ],
      [
        "h",
        "ol"
      ],
      [
        "p",
        "ort"
      ],
      [
        "f",
        "ely"
      ],
      [
        "at",
        "h"
      ],
      [
        "at",
        "ing"
      ],
      [
        "struct",
        "ured"
      ],
      [
        "sa",
        "fely"
      ],
      [
        ".",
        "."
      ],
      [
        "t",
        "e"
      ],
      [
        "with",
        "out"
      ],
      [
        "return",
        "ing"
      ],
      [
        "direct",
        "ly"
      ],
      [
        "trans",
        "act"
      ],
      [
        "nt",
        "im"
      ],
      [
        "ru",
        "ntim"
      ],
      [
        "runtim",
        "e"
      ],
      [
        "\"",
        "{"
      ],
      [
        "1",
        "0"
      ],
      [
        "1",
        "5"
      ],
      [
        "3",
        "2"
      ],
      [
        "7",
        "0"
      ],
      [
        "9",
        "0"
      ],
      [
        "E",
        "l"
      ],
      [
        "F",
        "low"
      ],
      [
        "\\",
        "\","
      ],
      [
        "_",
        "co"
      ],
      [
        "_",
        "name"
      ],
      [
        "_",
        "level"
      ],
      [
        "g",
        "ment"
      ],
      [
        "n",
        "al"
      ],
      [
        "p",
        "ress"
      ],
      [
        "s",
        "us"
      ],
      [
        "s",
        "ame"
      ],
      [
        "}",
        "\""
      ],
      [
        "or",
        "g"
      ],
      [
        "de",
        "s"
      ],
      [
        "al",
        "th"
      ],
      [
        "tr",
        "ol"
      ],
      [
        "it",
        "s"
      ],
      [
        "it",
        "or"
      ],
      [
        "se",
        "gment"
      ],
      [
        "he",
        "alth"
      ],
      [
        "ad",
        "min"
      ],
      [
        "valid",
        "_user"
      ],
      [
        "ed",
        "itor"
      ],
      [
        "qu",
        "ires"
      ],
      [
        "Ex",
        "press"
      ],
      [
        "Re",
        "quires"
      ],
      [
        "http",
        "bin"
      ],
      [
        "sh",
        "ip"
      ],
      [
        "Con",
        "trol"
      ],
      [
        "cla",
        "uses"
      ],
      [
        "\\\"",
        "}\""
      ],
      [
        "import_",
        "path"
      ],
      [
        "ping",
        "_co"
      ],
      [
        "parse_",
        "ident"
      ],
      [
        "parse_",
        "import_path"
      ],
      [
        "pen",
        "ded"
      ],
      [
        "pattern",
        "s"
      ],
      [
        "is_",
        "valid_user"
      ],
      [
        "inf",
        "o"
      ],
      [
        "access",
        "_level"
      ],
      [
        "\"{",
        "\\\""
      ],
      [
        "El",
        "se"
      ],
      [
        "\\\",",
        "\\\""
      ],
      [
        "sus",
        "pended"
      ],
      [
        "Express",
        "ions"
      ],
      [
        "ship",
        "ping_co"
      ],
      [
        "parse_ident",
        "_name"
      ],
      [
        "is_valid_user",
        "name"
      ],
      [
        "shipping_co",
        "st"
      ],
      [
        "s",
        "pe"
      ],
      [
        "il",
        "er"
      ],
      [
        "comp",
        "iler"
      ],
      [
        "Re",
        "act"
      ],
      [
        "P",
        "ar"
      ],
      [
        "a",
        "ut"
      ],
      [
        "c",
        "ro"
      ],
      [
        "f",
        "fe"
      ],
      [
        "s",
        "up"
      ],
      [
        "exp",
        "ort"
      ],
      [
        "all",
        "y"
      ],
      [
        "wil",
        "l"
      ],
      [
        "cro",
        "ss"
      ],
      [
        "ffe",
        "ct"
      ],
      [
        "sup",
        "port"
      ],
      [
        "ex",
        "ec"
      ],
      [
        "iv",
        "ed"
      ],
      [
        "der",
        "ived"
      ],
      [
        "exec",
        "ut"
      ],
      [
        "S",
        "ource"
      ],
      [
        "r",
        "ol"
      ],
      [
        "pe",
        "d"
      ],
      [
        "en",
        "c"
      ],
      [
        "island",
        "s"
      ],
      [
        "che",
        "cking"
      ],
      [
        "exp",
        "lic"
      ],
      [
        "explic",
        "it"
      ],
      [
        "n",
        "e"
      ],
      [
        "we",
        "b"
      ],
      [
        "not",
        "ify"
      ],
      [
        "c",
        "l"
      ],
      [
        "f",
        "ail"
      ],
      [
        "in",
        "ed"
      ],
      [
        "li",
        "ke"
      ],
      [
        "requ",
        "ire"
      ],
      [
        "spe",
        "c"
      ],
      [
        ":",
        "`"
      ],
      [
        "a",
        "cross"
      ],
      [
        "o",
        "m"
      ],
      [
        "in",
        "st"
      ],
      [
        "re",
        "f"
      ],
      [
        "ical",
        "ly"
      ],
      [
        "P",
        "ath"
      ],
      [
        "b",
        "are"
      ],
      [
        "h",
        "or"
      ],
      [
        "code",
        "gen"
      ],
      [
        "use",
        "d"
      ],
      [
        "place",
        "hol"
      ],
      [
        "aut",
        "hor"
      ],
      [
        "S",
        "X"
      ],
      [
        "b",
        "el"
      ],
      [
        "d",
        "ou"
      ],
      [
        "e",
        "cho"
      ],
      [
        "f",
        "ailure"
      ],
      [
        "h",
        "2"
      ],
      [
        "l",
        "back"
      ],
      [
        "p",
        "ong"
      ],
      [
        "//",
        "/"
      ],
      [
        "la",
        "bel"
      ],
      [
        "tra",
        "cing"
      ],
      [
        "()",
        ":"
      ],
      [
        "comp",
        "ens"
      ],
      [
        "onent",
        "ial"
      ],
      [
        "exp",
        "onential"
      ],
      [
        "log",
        "ging"
      ],
      [
        "_f",
        "ailure"
      ],
      [
        "mount",
        "ed"
      ],
      [
        "retr",
        "ied"
      ],
      [
        "idempot",
        "enc"
      ],
      [
        "GE",
        "T"
      ],
      [
        "back",
        "off"
      ],
      [
        "polic",
        "y"
      ],
      [
        "map",
        "ped"
      ],
      [
        "transact",
        "ions"
      ],
      [
        "rol",
        "lback"
      ],
      [
        "dou",
        "ble"
      ],
      [
        "compens",
        "ating"
      ],
      [
        "idempotenc",
        "y"
      ],
      [
        "mapped",
        "_failure"
      ],
      [
        "i",
        "r"
      ],
      [
        "R",
        "ust"
      ],
      [
        "a",
        "ch"
      ],
      [
        "ck",
        "er"
      ],
      [
        "boundar",
        "y"
      ],
      [
        "gener",
        "ates"
      ],
      [
        "A",
        "n"
      ],
      [
        "F",
        "or"
      ],
      [
        "a",
        "u"
      ],
      [
        "c",
        "r"
      ],
      [
        "e",
        "ffect"
      ],
      [
        "to",
        "mat"
      ],
      [
        "ot",
        "h"
      ],
      [
        "Actor",
        "s"
      ],
      [
        "test",
        "ing"
      ],
      [
        "inter",
        "nal"
      ],
      [
        "def",
        "ined"
      ],
      [
        "au",
        "tomat"
      ],
      [
        "automat",
        "ically"
      ],
      [
        "n",
        "ch"
      ],
      [
        "as",
        "sert"
      ],
      [
        "execut",
        "ion"
      ],
      [
        "nch",
        "ron"
      ],
      [
        ")",
        ":"
      ],
      [
        "0",
        "8"
      ],
      [
        "C",
        "L"
      ],
      [
        "C",
        "ard"
      ],
      [
        "S",
        "h"
      ],
      [
        "T",
        "SX"
      ],
      [
        "U",
        "s"
      ],
      [
        "W",
        "ire"
      ],
      [
        "re",
        "place"
      ],
      [
        "ch",
        "at"
      ],
      [
        "rout",
        "ed"
      ],
      [
        "document",
        "s"
      ],
      [
        "adcn",
        "Card"
      ],
      [
        "Par",
        "ses"
      ],
      [
        "placehol",
        "der"
      ],
      [
        "author",
        "s"
      ],
      [
        "CL",
        "I"
      ],
      [
        "Sh",
        "adcnCard"
      ],
      [
        "Us",
        "age"
      ],
      [
        "i",
        "mplement"
      ],
      [
        "**",
        ","
      ],
      [
        "comple",
        "te"
      ],
      [
        "a",
        "in"
      ],
      [
        "i",
        "ch"
      ],
      [
        "o",
        "p"
      ],
      [
        "}",
        "`"
      ],
      [
        "on",
        "click"
      ],
      [
        "ig",
        "n"
      ],
      [
        "ar",
        "ts"
      ],
      [
        "actor",
        "s"
      ],
      [
        "workflow",
        "s"
      ],
      [
        "wh",
        "ich"
      ],
      [
        "rest",
        "arts"
      ],
      [
        "D",
        "o"
      ],
      [
        "Q",
        "L"
      ],
      [
        "S",
        "QL"
      ],
      [
        "b",
        "ui"
      ],
      [
        "d",
        "ing"
      ],
      [
        "e",
        "ach"
      ],
      [
        "h",
        "o"
      ],
      [
        "m",
        "b"
      ],
      [
        "m",
        "ust"
      ],
      [
        "n",
        "ative"
      ],
      [
        "r",
        "y"
      ],
      [
        "r",
        "st"
      ],
      [
        "z",
        "z"
      ],
      [
        "de",
        "fine"
      ],
      [
        "co",
        "l"
      ],
      [
        "fi",
        "rst"
      ],
      [
        "cal",
        "l"
      ],
      [
        "handl",
        "ers"
      ],
      [
        "component",
        "s"
      ],
      [
        "che",
        "ck"
      ],
      [
        "fu",
        "zz"
      ],
      [
        "The",
        "y"
      ],
      [
        "nam",
        "es"
      ],
      [
        "def",
        "init"
      ],
      [
        "ful",
        "ly"
      ],
      [
        "cl",
        "u"
      ],
      [
        "spec",
        "i"
      ],
      [
        "Do",
        "cker"
      ],
      [
        "bui",
        "lt"
      ],
      [
        "c",
        "as"
      ],
      [
        "e",
        "valu"
      ],
      [
        "m",
        "ens"
      ],
      [
        "n",
        "et"
      ],
      [
        "r",
        "s"
      ],
      [
        "re",
        "active"
      ],
      [
        "an",
        "ged"
      ],
      [
        "ch",
        "anged"
      ],
      [
        "pro",
        "per"
      ],
      [
        "fi",
        "x"
      ],
      [
        "mo",
        "ke"
      ],
      [
        "oper",
        "ator"
      ],
      [
        "gener",
        "ate"
      ],
      [
        "comple",
        "x"
      ],
      [
        "nchron",
        "ous"
      ],
      [
        "cas",
        "es"
      ],
      [
        "net",
        "work"
      ],
      [
        "a",
        "int"
      ],
      [
        "m",
        "d"
      ],
      [
        "p",
        "y"
      ],
      [
        "t",
        "or"
      ],
      [
        "str",
        "aint"
      ],
      [
        "con",
        "straint"
      ],
      [
        "ADT",
        "s"
      ],
      [
        "vari",
        "able"
      ],
      [
        "express",
        "ion"
      ],
      [
        "py",
        "tor"
      ],
      [
        "constraint",
        "s"
      ],
      [
        "pytor",
        "ch"
      ],
      [
        ")",
        ":**"
      ],
      [
        "H",
        "e"
      ],
      [
        "i",
        "a"
      ],
      [
        "n",
        "u"
      ],
      [
        "n",
        "ew"
      ],
      [
        "r",
        "a"
      ],
      [
        "t",
        "ar"
      ],
      [
        "sc",
        "ient"
      ],
      [
        "read",
        "me"
      ],
      [
        "get",
        "s"
      ],
      [
        "sha",
        "red"
      ],
      [
        "strat",
        "es"
      ],
      [
        "Demon",
        "strates"
      ],
      [
        "ll",
        "m"
      ],
      [
        "ug",
        "g"
      ],
      [
        "..",
        "."
      ],
      [
        "He",
        "re"
      ],
      [
        "tar",
        "gets"
      ],
      [
        "scient",
        "ia"
      ],
      [
        "!",
        "\")"
      ],
      [
        "F",
        "rom"
      ],
      [
        "M",
        "e"
      ],
      [
        "]",
        "`"
      ],
      [
        "`",
        "//"
      ],
      [
        "a",
        "y"
      ],
      [
        "e",
        "mb"
      ],
      [
        "l",
        "ong"
      ],
      [
        "m",
        "iss"
      ],
      [
        "n",
        "ce"
      ],
      [
        "o",
        "c"
      ],
      [
        "s",
        "k"
      ],
      [
        "}",
        "}>\""
      ],
      [
        "in",
        "clu"
      ],
      [
        "re",
        "e"
      ],
      [
        "er",
        "a"
      ],
      [
        "le",
        "g"
      ],
      [
        "ou",
        "g"
      ],
      [
        "an",
        "y"
      ],
      [
        "es",
        "e"
      ],
      [
        "am",
        "era"
      ],
      [
        "fi",
        "ed"
      ],
      [
        "_c",
        "amera"
      ],
      [
        "com",
        "m"
      ],
      [
        "com",
        "es"
      ],
      [
        "ste",
        "ad"
      ],
      [
        "sur",
        "vi"
      ],
      [
        "per",
        "miss"
      ],
      [
        "be",
        "comes"
      ],
      [
        "orche",
        "str"
      ],
      [
        "model",
        "s"
      ],
      [
        "declar",
        "ation"
      ],
      [
        "Not",
        "ify"
      ],
      [
        "inter",
        "op"
      ],
      [
        "map",
        "s"
      ],
      [
        "mobile",
        "_camera"
      ],
      [
        "ne",
        "ed"
      ],
      [
        "emb",
        "ed"
      ],
      [
        ">",
        "`"
      ],
      [
        "J",
        "S"
      ],
      [
        "O",
        "N"
      ],
      [
        "i",
        "ct"
      ],
      [
        "o",
        "ps"
      ],
      [
        "t",
        "ies"
      ],
      [
        "w",
        "er"
      ],
      [
        "y",
        "nchronous"
      ],
      [
        "in",
        "v"
      ],
      [
        "st",
        "and"
      ],
      [
        "re",
        "nd"
      ],
      [
        "str",
        "ict"
      ],
      [
        "al",
        "i"
      ],
      [
        "lo",
        "ok"
      ],
      [
        "ol",
        "ated"
      ],
      [
        "is",
        "olated"
      ],
      [
        "as",
        "ynchronous"
      ],
      [
        "dis",
        "c"
      ],
      [
        "ce",
        "pt"
      ],
      [
        "comp",
        "iled"
      ],
      [
        "po",
        "wer"
      ],
      [
        "function",
        "al"
      ],
      [
        "match",
        "ing"
      ],
      [
        "set",
        "s"
      ],
      [
        "**",
        ":"
      ],
      [
        "**",
        "`"
      ],
      [
        "mar",
        "k"
      ],
      [
        "task",
        "s"
      ],
      [
        "comment",
        "s"
      ],
      [
        "run",
        "n"
      ],
      [
        "cor",
        "rect"
      ],
      [
        "inter",
        "active"
      ],
      [
        "fe",
        "ty"
      ],
      [
        "sa",
        "fety"
      ],
      [
        "An",
        "y"
      ],
      [
        "oth",
        "er"
      ],
      [
        "assert",
        "ions"
      ],
      [
        "definit",
        "ions"
      ],
      [
        "proper",
        "ties"
      ],
      [
        "JS",
        "ON"
      ],
      [
        "stand",
        "ard"
      ],
      [
        "strict",
        "ly"
      ],
      [
        ":",
        "`)."
      ],
      [
        "?",
        "`"
      ],
      [
        "B",
        "y"
      ],
      [
        "D",
        "ou"
      ],
      [
        "L",
        "ab"
      ],
      [
        "L",
        "ist"
      ],
      [
        "U",
        "ses"
      ],
      [
        "`",
        "?`"
      ],
      [
        "a",
        "use"
      ],
      [
        "b",
        "led"
      ],
      [
        "h",
        "a"
      ],
      [
        "i",
        "mple"
      ],
      [
        "i",
        "ally"
      ],
      [
        "p",
        "on"
      ],
      [
        "s",
        "imple"
      ],
      [
        "st",
        "or"
      ],
      [
        "de",
        "fa"
      ],
      [
        "al",
        "low"
      ],
      [
        "an",
        "ce"
      ],
      [
        "ent",
        "ially"
      ],
      [
        "un",
        "mounted"
      ],
      [
        "res",
        "pon"
      ],
      [
        "ction",
        "s"
      ],
      [
        "Res",
        "et"
      ],
      [
        "Re",
        "active"
      ],
      [
        "De",
        "crement"
      ],
      [
        "Task",
        "List"
      ],
      [
        "et",
        "ch"
      ],
      [
        "_s",
        "moke"
      ],
      [
        "import",
        "s"
      ],
      [
        "Ty",
        "pes"
      ],
      [
        "Se",
        "e"
      ],
      [
        "quer",
        "ies"
      ],
      [
        "support",
        "s"
      ],
      [
        "cr",
        "ates"
      ],
      [
        "reactive",
        "_smoke"
      ],
      [
        "variable",
        "s"
      ],
      [
        "Dou",
        "bled"
      ],
      [
        "Lab",
        "el"
      ],
      [
        "stor",
        "age"
      ],
      [
        "defa",
        "ult"
      ],
      [
        ")",
        "**"
      ],
      [
        "A",
        "ST"
      ],
      [
        "I",
        "t"
      ],
      [
        "K",
        "e"
      ],
      [
        "_",
        "load"
      ],
      [
        "a",
        "ve"
      ],
      [
        "b",
        "ining"
      ],
      [
        "c",
        "ard"
      ],
      [
        "d",
        "on"
      ],
      [
        "d",
        "ri"
      ],
      [
        "d",
        "card"
      ],
      [
        "e",
        "co"
      ],
      [
        "e",
        "mit"
      ],
      [
        "k",
        "es"
      ],
      [
        "n",
        "s"
      ],
      [
        "o",
        "s"
      ],
      [
        "p",
        "h"
      ],
      [
        "s",
        "ol"
      ],
      [
        "w",
        "ires"
      ],
      [
        "in",
        "es"
      ],
      [
        "re",
        "act"
      ],
      [
        "re",
        "ce"
      ],
      [
        "lo",
        "ose"
      ],
      [
        "se",
        "cond"
      ],
      [
        "OR",
        "M"
      ],
      [
        "lay",
        "out"
      ],
      [
        "pro",
        "gram"
      ],
      [
        "un",
        "ic"
      ],
      [
        "un",
        "its"
      ],
      [
        "out",
        "side"
      ],
      [
        "pt",
        "ion"
      ],
      [
        "il",
        "d"
      ],
      [
        "activ",
        "ities"
      ],
      [
        "comp",
        "os"
      ],
      [
        "pa",
        "ir"
      ],
      [
        "cap",
        "s"
      ],
      [
        "com",
        "bining"
      ],
      [
        "th",
        "ree"
      ],
      [
        "th",
        "ese"
      ],
      [
        "state",
        "_s"
      ],
      [
        "state",
        "_load"
      ],
      [
        "exp",
        "l"
      ],
      [
        "Con",
        "text"
      ],
      [
        "whe",
        "n"
      ],
      [
        "string",
        "s"
      ],
      [
        "handle",
        "s"
      ],
      [
        "oper",
        "ation"
      ],
      [
        "me",
        "et"
      ],
      [
        "ext",
        "ens"
      ],
      [
        "pla",
        "ces"
      ],
      [
        "strate",
        "g"
      ],
      [
        "num",
        "b"
      ],
      [
        "expos",
        "es"
      ],
      [
        "redi",
        "rect"
      ],
      [
        "enable",
        "s"
      ],
      [
        "back",
        "end"
      ],
      [
        "back",
        "pack"
      ],
      [
        "gener",
        "ated"
      ],
      [
        "LL",
        "Ms"
      ],
      [
        "direct",
        "ive"
      ],
      [
        "wil",
        "dcard"
      ],
      [
        "des",
        "ign"
      ],
      [
        "Par",
        "ser"
      ],
      [
        "implement",
        "ed"
      ],
      [
        "implement",
        "ation"
      ],
      [
        "speci",
        "fied"
      ],
      [
        "nu",
        "ll"
      ],
      [
        "sk",
        "ip"
      ],
      [
        "comm",
        "unic"
      ],
      [
        "permiss",
        "ion"
      ],
      [
        "dri",
        "ft"
      ],
      [
        "eco",
        "system"
      ],
      [
        "rece",
        "ives"
      ],
      [
        "state_s",
        "ave"
      ],
      [
        "extens",
        "ion"
      ],
      [
        "E",
        "very"
      ],
      [
        "M",
        "L"
      ],
      [
        "W",
        "he"
      ],
      [
        "`",
        "#"
      ],
      [
        "`",
        "|"
      ],
      [
        "b",
        "oth"
      ],
      [
        "c",
        "ure"
      ],
      [
        "d",
        "r"
      ],
      [
        "e",
        "very"
      ],
      [
        "f",
        "s"
      ],
      [
        "m",
        "u"
      ],
      [
        "m",
        "ult"
      ],
      [
        "n",
        "de"
      ],
      [
        "o",
        "d"
      ],
      [
        "o",
        "pt"
      ],
      [
        "r",
        "oug"
      ],
      [
        "w",
        "ant"
      ],
      [
        "in",
        "s"
      ],
      [
        "in",
        "ally"
      ],
      [
        "in",
        "stead"
      ],
      [
        "re",
        "l"
      ],
      [
        "re",
        "nt"
      ],
      [
        "re",
        "quest"
      ],
      [
        "re",
        "nde"
      ],
      [
        "on",
        "om"
      ],
      [
        "al",
        "le"
      ],
      [
        "ent",
        "ry"
      ],
      [
        "co",
        "ver"
      ],
      [
        "lo",
        "re"
      ],
      [
        "lo",
        "cal"
      ],
      [
        "ate",
        "ly"
      ],
      [
        "se",
        "cur"
      ],
      [
        "se",
        "que"
      ],
      [
        "se",
        "cure"
      ],
      [
        "vi",
        "des"
      ],
      [
        "ab",
        "l"
      ],
      [
        "ex",
        "ist"
      ],
      [
        "ex",
        "cept"
      ],
      [
        "struct",
        "ur"
      ],
      [
        "struct",
        "ure"
      ],
      [
        "iv",
        "ities"
      ],
      [
        "pro",
        "ject"
      ],
      [
        "pro",
        "vides"
      ],
      [
        "un",
        "der"
      ],
      [
        "res",
        "ol"
      ],
      [
        "com",
        "bin"
      ],
      [
        "th",
        "roug"
      ],
      [
        "ic",
        "s"
      ],
      [
        "im",
        "age"
      ],
      [
        "Act",
        "ivities"
      ],
      [
        "ok",
        "ed"
      ],
      [
        "agent",
        "s"
      ],
      [
        "ant",
        "i"
      ],
      [
        "HT",
        "ML"
      ],
      [
        "UR",
        "L"
      ],
      [
        "hy",
        "dr"
      ],
      [
        "Workflow",
        "s"
      ],
      [
        "annot",
        "ated"
      ],
      [
        "annot",
        "ations"
      ],
      [
        "inter",
        "act"
      ],
      [
        "input",
        "s"
      ],
      [
        "tim",
        "e"
      ],
      [
        "hol",
        "d"
      ],
      [
        "inst",
        "anti"
      ],
      [
        "ho",
        "ok"
      ],
      [
        "names",
        "pa"
      ],
      [
        "Docker",
        "file"
      ],
      [
        "evalu",
        "ates"
      ],
      [
        "survi",
        "ve"
      ],
      [
        "orchestr",
        "ation"
      ],
      [
        "inv",
        "oked"
      ],
      [
        "ali",
        "as"
      ],
      [
        "power",
        "ful"
      ],
      [
        "runn",
        "ing"
      ],
      [
        "Whe",
        "n"
      ],
      [
        "`|",
        ">`"
      ],
      [
        "mu",
        "table"
      ],
      [
        "mult",
        "i"
      ],
      [
        "rende",
        "red"
      ],
      [
        "secur",
        "ity"
      ],
      [
        "seque",
        "nc"
      ],
      [
        "secure",
        "ly"
      ],
      [
        "except",
        "ions"
      ],
      [
        "throug",
        "h"
      ],
      [
        "A",
        "b"
      ],
      [
        "B",
        "ec"
      ],
      [
        "E",
        "ffect"
      ],
      [
        "F",
        "un"
      ],
      [
        "L",
        "ex"
      ],
      [
        "O",
        "pen"
      ],
      [
        "U",
        "sed"
      ],
      [
        "]",
        "("
      ],
      [
        "`",
        "**"
      ],
      [
        "b",
        "al"
      ],
      [
        "c",
        "ed"
      ],
      [
        "c",
        "rate"
      ],
      [
        "e",
        "ar"
      ],
      [
        "e",
        "lement"
      ],
      [
        "g",
        "lo"
      ],
      [
        "g",
        "ation"
      ],
      [
        "h",
        "as"
      ],
      [
        "i",
        "la"
      ],
      [
        "m",
        "ight"
      ],
      [
        "n",
        "at"
      ],
      [
        "p",
        "ass"
      ],
      [
        "r",
        "c"
      ],
      [
        "s",
        "u"
      ],
      [
        "s",
        "rc"
      ],
      [
        "st",
        "art"
      ],
      [
        "ou",
        "p"
      ],
      [
        "str",
        "act"
      ],
      [
        "lo",
        "ops"
      ],
      [
        "ret",
        "e"
      ],
      [
        "se",
        "qu"
      ],
      [
        "se",
        "ver"
      ],
      [
        "act",
        "s"
      ],
      [
        "ar",
        "y"
      ],
      [
        "ex",
        "ha"
      ],
      [
        "iv",
        "ely"
      ],
      [
        "ment",
        "s"
      ],
      [
        "ib",
        "ut"
      ],
      [
        "instruction",
        "s"
      ],
      [
        "tool",
        "sets"
      ],
      [
        "file",
        "s"
      ],
      [
        "Re",
        "g"
      ],
      [
        "th",
        "an"
      ],
      [
        "abil",
        "ity"
      ],
      [
        "Agent",
        "s"
      ],
      [
        "agent",
        "ic"
      ],
      [
        "oper",
        "ate"
      ],
      [
        "ru",
        "st"
      ],
      [
        "vari",
        "ant"
      ],
      [
        "mode",
        "led"
      ],
      [
        "ust",
        "ive"
      ],
      [
        "ath",
        "er"
      ],
      [
        "transact",
        "ion"
      ],
      [
        "support",
        "ed"
      ],
      [
        "inst",
        "ance"
      ],
      [
        "col",
        "le"
      ],
      [
        "speci",
        "fic"
      ],
      [
        "evalu",
        "ate"
      ],
      [
        "network",
        "ing"
      ],
      [
        "rend",
        "er"
      ],
      [
        "disc",
        "rete"
      ],
      [
        "allow",
        "s"
      ],
      [
        "respon",
        "ding"
      ],
      [
        "Ab",
        "stract"
      ],
      [
        "Bec",
        "ause"
      ],
      [
        "Fun",
        "ctions"
      ],
      [
        "Lex",
        "ical"
      ],
      [
        "ear",
        "ly"
      ],
      [
        "glo",
        "bal"
      ],
      [
        "ila",
        "ble"
      ],
      [
        "nat",
        "ively"
      ],
      [
        "sequ",
        "entially"
      ],
      [
        "sever",
        "al"
      ],
      [
        "exha",
        "ustive"
      ],
      [
        "%",
        "`"
      ],
      [
        "(",
        "`@"
      ],
      [
        "3",
        "c"
      ],
      [
        "A",
        "x"
      ],
      [
        "A",
        "nd"
      ],
      [
        "B",
        "un"
      ],
      [
        "C",
        "ust"
      ],
      [
        "D",
        "E"
      ],
      [
        "E",
        "M"
      ],
      [
        "E",
        "n"
      ],
      [
        "E",
        "nt"
      ],
      [
        "E",
        "sc"
      ],
      [
        "E",
        "if"
      ],
      [
        "E",
        "nu"
      ],
      [
        "F",
        "u"
      ],
      [
        "I",
        "mp"
      ],
      [
        "L",
        "ay"
      ],
      [
        "N",
        "am"
      ],
      [
        "O",
        "ra"
      ],
      [
        "O",
        "nce"
      ],
      [
        "O",
        "ption"
      ],
      [
        "P",
        "at"
      ],
      [
        "S",
        "m"
      ],
      [
        "S",
        "er"
      ],
      [
        "S",
        "pa"
      ],
      [
        "T",
        "ot"
      ],
      [
        "T",
        "3c"
      ],
      [
        "T",
        "EM"
      ],
      [
        "W",
        "h"
      ],
      [
        "_",
        "v"
      ],
      [
        "`",
        "%"
      ],
      [
        "`",
        "/"
      ],
      [
        "`",
        "{"
      ],
      [
        "`",
        ")**"
      ],
      [
        "a",
        "f"
      ],
      [
        "a",
        "pe"
      ],
      [
        "a",
        "res"
      ],
      [
        "a",
        "inst"
      ],
      [
        "a",
        "kes"
      ],
      [
        "b",
        "u"
      ],
      [
        "b",
        "ou"
      ],
      [
        "b",
        "it"
      ],
      [
        "b",
        "ient"
      ],
      [
        "c",
        "er"
      ],
      [
        "c",
        "is"
      ],
      [
        "c",
        "ase"
      ],
      [
        "c",
        "ies"
      ],
      [
        "c",
        "ates"
      ],
      [
        "d",
        "ers"
      ],
      [
        "d",
        "if"
      ],
      [
        "d",
        "led"
      ],
      [
        "d",
        "ist"
      ],
      [
        "e",
        "p"
      ],
      [
        "e",
        "ded"
      ],
      [
        "f",
        "r"
      ],
      [
        "f",
        "ol"
      ],
      [
        "f",
        "el"
      ],
      [
        "f",
        "en"
      ],
      [
        "f",
        "ut"
      ],
      [
        "f",
        "ence"
      ],
      [
        "f",
        "ore"
      ],
      [
        "f",
        "ined"
      ],
      [
        "f",
        "ra"
      ],
      [
        "f",
        "inally"
      ],
      [
        "g",
        "l"
      ],
      [
        "g",
        "ui"
      ],
      [
        "h",
        "er"
      ],
      [
        "h",
        "at"
      ],
      [
        "h",
        "ig"
      ],
      [
        "h",
        "um"
      ],
      [
        "h",
        "app"
      ],
      [
        "i",
        "vi"
      ],
      [
        "i",
        "pe"
      ],
      [
        "i",
        "ce"
      ],
      [
        "i",
        "red"
      ],
      [
        "j",
        "our"
      ],
      [
        "k",
        "s"
      ],
      [
        "k",
        "to"
      ],
      [
        "k",
        "lore"
      ],
      [
        "l",
        "s"
      ],
      [
        "l",
        "ine"
      ],
      [
        "l",
        "ives"
      ],
      [
        "l",
        "inter"
      ],
      [
        "l",
        "ines"
      ],
      [
        "m",
        "er"
      ],
      [
        "m",
        "et"
      ],
      [
        "n",
        "ation"
      ],
      [
        "n",
        "ded"
      ],
      [
        "o",
        "ic"
      ],
      [
        "o",
        "pen"
      ],
      [
        "o",
        "ses"
      ],
      [
        "p",
        "ret"
      ],
      [
        "p",
        "ipeline"
      ],
      [
        "p",
        "ile"
      ],
      [
        "p",
        "ipe"
      ],
      [
        "r",
        "t"
      ],
      [
        "r",
        "ar"
      ],
      [
        "r",
        "um"
      ],
      [
        "s",
        "and"
      ],
      [
        "s",
        "able"
      ],
      [
        "s",
        "play"
      ],
      [
        "s",
        "pl"
      ],
      [
        "s",
        "imp"
      ],
      [
        "s",
        "ile"
      ],
      [
        "s",
        "ign"
      ],
      [
        "s",
        "moke"
      ],
      [
        "t",
        "el"
      ],
      [
        "t",
        "en"
      ],
      [
        "t",
        "ure"
      ],
      [
        "u",
        "al"
      ],
      [
        "u",
        "ally"
      ],
      [
        "u",
        "ption"
      ],
      [
        "v",
        "ing"
      ],
      [
        "v",
        "es"
      ],
      [
        "v",
        "erge"
      ],
      [
        "v",
        "oc"
      ],
      [
        "w",
        "ser"
      ],
      [
        "w",
        "ers"
      ],
      [
        "w",
        "ants"
      ],
      [
        "y",
        "_f"
      ],
      [
        "}",
        "}"
      ],
      [
        "in",
        "ct"
      ],
      [
        "in",
        "al"
      ],
      [
        "in",
        "vent"
      ],
      [
        "st",
        "ory"
      ],
      [
        "st",
        "ash"
      ],
      [
        "st",
        "ay"
      ],
      [
        "st",
        "ops"
      ],
      [
        "st",
        "ics"
      ],
      [
        "st",
        "akes"
      ],
      [
        "re",
        "al"
      ],
      [
        "re",
        "se"
      ],
      [
        "re",
        "activity"
      ],
      [
        "re",
        "main"
      ],
      [
        "re",
        "mon"
      ],
      [
        "re",
        "ach"
      ],
      [
        "re",
        "pair"
      ],
      [
        "re",
        "places"
      ],
      [
        "er",
        "red"
      ],
      [
        "er",
        "nal"
      ],
      [
        "on",
        "ce"
      ],
      [
        "at",
        "ure"
      ],
      [
        "at",
        "te"
      ],
      [
        "or",
        "ph"
      ],
      [
        "or",
        "bit"
      ],
      [
        "nt",
        "ly"
      ],
      [
        "ct",
        "ed"
      ],
      [
        "str",
        "ugg"
      ],
      [
        "de",
        "v"
      ],
      [
        "de",
        "pen"
      ],
      [
        "de",
        "cis"
      ],
      [
        "al",
        "lo"
      ],
      [
        "al",
        "gebraic"
      ],
      [
        "al",
        "tern"
      ],
      [
        "tr",
        "ivi"
      ],
      [
        "tr",
        "y_f"
      ],
      [
        "it",
        "ing"
      ],
      [
        "it",
        "es"
      ],
      [
        "it",
        "able"
      ],
      [
        "it",
        "im"
      ],
      [
        "it",
        "ive"
      ],
      [
        "it",
        "ical"
      ],
      [
        "it",
        "ely"
      ],
      [
        "ent",
        "ri"
      ],
      [
        "mp",
        "late"
      ],
      [
        "co",
        "splay"
      ],
      [
        "lo",
        "t"
      ],
      [
        "la",
        "ps"
      ],
      [
        "ate",
        "ver"
      ],
      [
        "to",
        "col"
      ],
      [
        "int",
        "ent"
      ],
      [
        "int",
        "err"
      ],
      [
        "int",
        "ain"
      ],
      [
        "se",
        "ns"
      ],
      [
        "tra",
        "ct"
      ],
      [
        "tra",
        "ck"
      ],
      [
        "tra",
        "cker"
      ],
      [
        "vi",
        "rt"
      ],
      [
        "is",
        "h"
      ],
      [
        "he",
        "re"
      ],
      [
        "ab",
        "out"
      ],
      [
        "ab",
        "sol"
      ],
      [
        "us",
        "sable"
      ],
      [
        "ar",
        "ch"
      ],
      [
        "ro",
        "ot"
      ],
      [
        "ur",
        "ation"
      ],
      [
        "am",
        "bient"
      ],
      [
        "am",
        "orph"
      ],
      [
        "stack",
        "s"
      ],
      [
        "the",
        "ref"
      ],
      [
        "vent",
        "ion"
      ],
      [
        "valid",
        "ate"
      ],
      [
        "con",
        "cate"
      ],
      [
        "con",
        "ne"
      ],
      [
        "con",
        "cer"
      ],
      [
        "con",
        "verge"
      ],
      [
        "con",
        "tract"
      ],
      [
        "con",
        "vention"
      ],
      [
        "ch",
        "rom"
      ],
      [
        "ch",
        "ild"
      ],
      [
        "pro",
        "ces"
      ],
      [
        "pro",
        "ble"
      ],
      [
        "un",
        "it"
      ],
      [
        "un",
        "changed"
      ],
      [
        "un",
        "implemented"
      ],
      [
        "out",
        "s"
      ],
      [
        "out",
        "Name"
      ],
      [
        "den",
        "cies"
      ],
      [
        "sc",
        "an"
      ],
      [
        "In",
        "put"
      ],
      [
        "In",
        "stead"
      ],
      [
        "In",
        "fra"
      ],
      [
        "In",
        "line"
      ],
      [
        "ap",
        "art"
      ],
      [
        "for",
        "get"
      ],
      [
        "for",
        "cing"
      ],
      [
        "for",
        "ks"
      ],
      [
        "kind",
        "s"
      ],
      [
        "table",
        "s"
      ],
      [
        "script",
        "ing"
      ],
      [
        "en",
        "caps"
      ],
      [
        "il",
        "y"
      ],
      [
        "Wr",
        "iting"
      ],
      [
        "ce",
        "remon"
      ],
      [
        "ame",
        "work"
      ],
      [
        "ut",
        "e"
      ],
      [
        "ut",
        "ation"
      ],
      [
        "comp",
        "ares"
      ],
      [
        "comp",
        "utation"
      ],
      [
        "ask",
        "s"
      ],
      [
        "mpt",
        "s"
      ],
      [
        "work",
        "ing"
      ],
      [
        "work",
        "ers"
      ],
      [
        "work",
        "spa"
      ],
      [
        "with",
        "in"
      ],
      [
        "Ex",
        "ten"
      ],
      [
        "cur",
        "s"
      ],
      [
        "Re",
        "place"
      ],
      [
        "ase",
        "able"
      ],
      [
        "De",
        "cl"
      ],
      [
        "De",
        "leg"
      ],
      [
        "De",
        "fined"
      ],
      [
        "th",
        "ing"
      ],
      [
        "th",
        "ir"
      ],
      [
        "th",
        "oug"
      ],
      [
        "th",
        "od"
      ],
      [
        "ash",
        "es"
      ],
      [
        "ag",
        "no"
      ],
      [
        "ag",
        "ain"
      ],
      [
        "ag",
        "ainst"
      ],
      [
        "mo",
        "ck"
      ],
      [
        "state",
        "ful"
      ],
      [
        "par",
        "ty"
      ],
      [
        "sh",
        "ow"
      ],
      [
        "pl",
        "ugg"
      ],
      [
        "char",
        "ging"
      ],
      [
        "form",
        "ed"
      ],
      [
        "Su",
        "itable"
      ],
      [
        "est",
        "abl"
      ],
      [
        "ort",
        "s"
      ],
      [
        "ort",
        "ing"
      ],
      [
        "cre",
        "ates"
      ],
      [
        "**",
        "."
      ],
      [
        "ializ",
        "able"
      ],
      [
        "cla",
        "use"
      ],
      [
        "mar",
        "gin"
      ],
      [
        "bro",
        "wser"
      ],
      [
        "Event",
        "ually"
      ],
      [
        "config",
        "uration"
      ],
      [
        "ma",
        "y"
      ],
      [
        "ma",
        "kes"
      ],
      [
        "ma",
        "intain"
      ],
      [
        "trade",
        "_re"
      ],
      [
        "token",
        "s"
      ],
      [
        "union",
        "s"
      ],
      [
        "wn",
        "ing"
      ],
      [
        "be",
        "ing"
      ],
      [
        "be",
        "fore"
      ],
      [
        "sum",
        "mit"
      ],
      [
        "Mo",
        "der"
      ],
      [
        "app",
        "s"
      ],
      [
        "propose",
        "d"
      ],
      [
        "wh",
        "atever"
      ],
      [
        "primar",
        "ily"
      ],
      [
        "add",
        "ress"
      ],
      [
        "vironment",
        "Decl"
      ],
      [
        "di",
        "agno"
      ],
      [
        "so",
        "me"
      ],
      [
        "prod",
        "uct"
      ],
      [
        "Struct",
        "s"
      ],
      [
        "me",
        "thod"
      ],
      [
        "ext",
        "ernal"
      ],
      [
        "find",
        "s"
      ],
      [
        "mod",
        "ify"
      ],
      [
        "ter",
        "thoug"
      ],
      [
        "mode",
        "s"
      ],
      [
        "Type",
        "d"
      ],
      [
        "retr",
        "ies"
      ],
      [
        "cho",
        "oses"
      ],
      [
        "wr",
        "ites"
      ],
      [
        "decla",
        "res"
      ],
      [
        "demon",
        "strate"
      ],
      [
        "Pro",
        "tocol"
      ],
      [
        "no",
        "op"
      ],
      [
        "own",
        "s"
      ],
      [
        "cont",
        "ain"
      ],
      [
        "disco",
        "ver"
      ],
      [
        "lib",
        "rar"
      ],
      [
        "Rep",
        "orts"
      ],
      [
        "Route",
        "Ent"
      ],
      [
        "tw",
        "ice"
      ],
      [
        "requ",
        "ires"
      ],
      [
        "requ",
        "ired"
      ],
      [
        "integ",
        "er"
      ],
      [
        "box",
        "ed"
      ],
      [
        "inter",
        "activity"
      ],
      [
        "inter",
        "pret"
      ],
      [
        "wrap",
        "s"
      ],
      [
        "pol",
        "itely"
      ],
      [
        "pre",
        "condition"
      ],
      [
        "endpoint",
        "s"
      ],
      [
        "fe",
        "rent"
      ],
      [
        "sm",
        "ugg"
      ],
      [
        "sm",
        "alle"
      ],
      [
        "gener",
        "ic"
      ],
      [
        "def",
        "ines"
      ],
      [
        "Use",
        "ful"
      ],
      [
        "ans",
        "wers"
      ],
      [
        "is_",
        "llm"
      ],
      [
        "is_",
        "wildcard"
      ],
      [
        "inf",
        "erred"
      ],
      [
        "13",
        "3"
      ],
      [
        "te",
        "mplate"
      ],
      [
        "nal",
        "ing"
      ],
      [
        "des",
        "kto"
      ],
      [
        "aut",
        "onom"
      ],
      [
        "export",
        "ing"
      ],
      [
        "export",
        "ed"
      ],
      [
        "support",
        "ing"
      ],
      [
        "ne",
        "eded"
      ],
      [
        "fail",
        "ing"
      ],
      [
        "ref",
        "ers"
      ],
      [
        "placehol",
        "ders"
      ],
      [
        "cr",
        "itical"
      ],
      [
        "cr",
        "ashes"
      ],
      [
        "effect",
        "s"
      ],
      [
        "}`",
        "**,"
      ],
      [
        "ho",
        "st"
      ],
      [
        "col",
        "laps"
      ],
      [
        "check",
        "ed"
      ],
      [
        "fuzz",
        "ing"
      ],
      [
        "definit",
        "ion"
      ],
      [
        "fix",
        "ture"
      ],
      [
        "ra",
        "w"
      ],
      [
        "...",
        "`."
      ],
      [
        "long",
        "er"
      ],
      [
        "oc",
        "curs"
      ],
      [
        "inclu",
        "de"
      ],
      [
        "inclu",
        "ding"
      ],
      [
        "leg",
        "itim"
      ],
      [
        "survi",
        "ving"
      ],
      [
        "orchestr",
        "ated"
      ],
      [
        "need",
        "s"
      ],
      [
        "embed",
        "ded"
      ],
      [
        "embed",
        "ding"
      ],
      [
        "rend",
        "ers"
      ],
      [
        "look",
        "s"
      ],
      [
        "disc",
        "ussable"
      ],
      [
        "**`",
        "\"/"
      ],
      [
        "mark",
        "s"
      ],
      [
        "correct",
        "ly"
      ],
      [
        "Ke",
        "y"
      ],
      [
        "Ke",
        "ep"
      ],
      [
        "ph",
        "aseable"
      ],
      [
        "sol",
        "ves"
      ],
      [
        "compos",
        "ite"
      ],
      [
        "compos",
        "ition"
      ],
      [
        "pair",
        "s"
      ],
      [
        "meet",
        "s"
      ],
      [
        "meet",
        "ing"
      ],
      [
        "strateg",
        "y"
      ],
      [
        "strateg",
        "ies"
      ],
      [
        "numb",
        "er"
      ],
      [
        "numb",
        "ers"
      ],
      [
        "redirect",
        "s"
      ],
      [
        "communic",
        "ation"
      ],
      [
        "communic",
        "ates"
      ],
      [
        "permission",
        "ed"
      ],
      [
        "drift",
        "ing"
      ],
      [
        "Every",
        "thing"
      ],
      [
        "ins",
        "ight"
      ],
      [
        "rel",
        "ative"
      ],
      [
        "cover",
        "age"
      ],
      [
        "structur",
        "al"
      ],
      [
        "project",
        "s"
      ],
      [
        "resol",
        "ver"
      ],
      [
        "combin",
        "ation"
      ],
      [
        "hydr",
        "ation"
      ],
      [
        "time",
        "outs"
      ],
      [
        "hold",
        "s"
      ],
      [
        "instanti",
        "ation"
      ],
      [
        "namespa",
        "ce"
      ],
      [
        "sequenc",
        "ing"
      ],
      [
        "Ax",
        "um"
      ],
      [
        "Bun",
        "dled"
      ],
      [
        "Cust",
        "om"
      ],
      [
        "DE",
        "I"
      ],
      [
        "En",
        "vironmentDecl"
      ],
      [
        "Esc",
        "ape"
      ],
      [
        "Eif",
        "fel"
      ],
      [
        "Enu",
        "ms"
      ],
      [
        "Fu",
        "ll"
      ],
      [
        "Imp",
        "orting"
      ],
      [
        "Lay",
        "outName"
      ],
      [
        "Nam",
        "ing"
      ],
      [
        "Ora",
        "cle"
      ],
      [
        "Pat",
        "tern"
      ],
      [
        "Sm",
        "all"
      ],
      [
        "Ser",
        "ializable"
      ],
      [
        "Spa",
        "wning"
      ],
      [
        "Tot",
        "al"
      ],
      [
        "TEM",
        "P"
      ],
      [
        "Wh",
        "ile"
      ],
      [
        "_v",
        "2"
      ],
      [
        "af",
        "terthoug"
      ],
      [
        "bu",
        "ild"
      ],
      [
        "bou",
        "nded"
      ],
      [
        "dif",
        "ferent"
      ],
      [
        "dist",
        "inct"
      ],
      [
        "fr",
        "amework"
      ],
      [
        "fol",
        "klore"
      ],
      [
        "fen",
        "ces"
      ],
      [
        "fut",
        "ure"
      ],
      [
        "gl",
        "ue"
      ],
      [
        "gui",
        "ded"
      ],
      [
        "her",
        "oic"
      ],
      [
        "hat",
        "ch"
      ],
      [
        "hig",
        "h"
      ],
      [
        "hum",
        "an"
      ],
      [
        "happ",
        "y"
      ],
      [
        "jour",
        "naling"
      ],
      [
        "mer",
        "ging"
      ],
      [
        "met",
        "amorph"
      ],
      [
        "rum",
        "or"
      ],
      [
        "sand",
        "boxed"
      ],
      [
        "spl",
        "it"
      ],
      [
        "simp",
        "ly"
      ],
      [
        "sile",
        "ntly"
      ],
      [
        "sign",
        "ature"
      ],
      [
        "tel",
        "ls"
      ],
      [
        "voc",
        "ab"
      ],
      [
        "}}",
        "`)."
      ],
      [
        "inal",
        "_v2"
      ],
      [
        "invent",
        "ing"
      ],
      [
        "stay",
        "s"
      ],
      [
        "rese",
        "arch"
      ],
      [
        "remain",
        "s"
      ],
      [
        "atte",
        "mpts"
      ],
      [
        "strugg",
        "le"
      ],
      [
        "depen",
        "dencies"
      ],
      [
        "decis",
        "ion"
      ],
      [
        "allo",
        "cates"
      ],
      [
        "altern",
        "ative"
      ],
      [
        "trivi",
        "al"
      ],
      [
        "try_f",
        "inal_v2"
      ],
      [
        "entri",
        "es"
      ],
      [
        "interr",
        "uption"
      ],
      [
        "sens",
        "itive"
      ],
      [
        "track",
        "s"
      ],
      [
        "virt",
        "ual"
      ],
      [
        "absol",
        "ute"
      ],
      [
        "root",
        "s"
      ],
      [
        "theref",
        "ore"
      ],
      [
        "concate",
        "nation"
      ],
      [
        "conne",
        "cted"
      ],
      [
        "concer",
        "ns"
      ],
      [
        "converge",
        "nce"
      ],
      [
        "chrom",
        "e"
      ],
      [
        "proces",
        "sed"
      ],
      [
        "proble",
        "m"
      ],
      [
        "Infra",
        "structure"
      ],
      [
        "encaps",
        "ulate"
      ],
      [
        "ceremon",
        "y"
      ],
      [
        "workspa",
        "ce"
      ],
      [
        "Exten",
        "ded"
      ],
      [
        "Deleg",
        "ating"
      ],
      [
        "thir",
        "d"
      ],
      [
        "show",
        "ing"
      ],
      [
        "plugg",
        "able"
      ],
      [
        "establ",
        "ish"
      ],
      [
        "trade_re",
        "try_final_v2"
      ],
      [
        "Moder",
        "n"
      ],
      [
        "diagno",
        "stics"
      ],
      [
        "some",
        "one"
      ],
      [
        "librar",
        "ies"
      ],
      [
        "RouteEnt",
        "ry"
      ],
      [
        "interpret",
        "ed"
      ],
      [
        "smugg",
        "led"
      ],
      [
        "smalle",
        "st"
      ],
      [
        "deskto",
        "p"
      ],
      [
        "autonom",
        "ous"
      ],
      [
        "collaps",
        "es"
      ],
      [
        "legitim",
        "ately"
      ],
      [
        "afterthoug",
        "ht"
      ],
      [
        "metamorph",
        "ic"
      ],
      [
        "\"",
        "`"
      ],
      [
        ")",
        ")."
      ],
      [
        ")",
        "`."
      ],
      [
        ".",
        "/"
      ],
      [
        ":",
        "<"
      ],
      [
        "A",
        "P"
      ],
      [
        "A",
        "c"
      ],
      [
        "B",
        "lo"
      ],
      [
        "C",
        "o"
      ],
      [
        "C",
        "li"
      ],
      [
        "C",
        "om"
      ],
      [
        "D",
        "K"
      ],
      [
        "F",
        "etch"
      ],
      [
        "F",
        "inally"
      ],
      [
        "G",
        "r"
      ],
      [
        "H",
        "ash"
      ],
      [
        "H",
        "IR"
      ],
      [
        "I",
        "s"
      ],
      [
        "I",
        "ts"
      ],
      [
        "J",
        "SX"
      ],
      [
        "L",
        "in"
      ],
      [
        "L",
        "et"
      ],
      [
        "N",
        "one"
      ],
      [
        "N",
        "ext"
      ],
      [
        "O",
        "ld"
      ],
      [
        "P",
        "re"
      ],
      [
        "R",
        "a"
      ],
      [
        "R",
        "ather"
      ],
      [
        "S",
        "table"
      ],
      [
        "S",
        "up"
      ],
      [
        "S",
        "im"
      ],
      [
        "S",
        "DK"
      ],
      [
        "T",
        "ree"
      ],
      [
        "U",
        "p"
      ],
      [
        "U",
        "sing"
      ],
      [
        "V",
        "M"
      ],
      [
        "V",
        "ari"
      ],
      [
        "[",
        "`"
      ],
      [
        "]",
        "`,"
      ],
      [
        "`",
        "\""
      ],
      [
        "`",
        ";"
      ],
      [
        "`",
        "—"
      ],
      [
        "`",
        ".*"
      ],
      [
        "`",
        "]("
      ],
      [
        "a",
        "v"
      ],
      [
        "a",
        "ilable"
      ],
      [
        "c",
        "ar"
      ],
      [
        "c",
        "ause"
      ],
      [
        "d",
        "ate"
      ],
      [
        "d",
        "ur"
      ],
      [
        "d",
        "ay"
      ],
      [
        "e",
        "qu"
      ],
      [
        "e",
        "per"
      ],
      [
        "f",
        "er"
      ],
      [
        "f",
        "ollow"
      ],
      [
        "f",
        "ron"
      ],
      [
        "f",
        "fix"
      ],
      [
        "f",
        "etch"
      ],
      [
        "g",
        "re"
      ],
      [
        "g",
        "ine"
      ],
      [
        "g",
        "ument"
      ],
      [
        "g",
        "onom"
      ],
      [
        "h",
        "ash"
      ],
      [
        "h",
        "its"
      ],
      [
        "i",
        "ck"
      ],
      [
        "i",
        "ste"
      ],
      [
        "i",
        "lar"
      ],
      [
        "i",
        "fication"
      ],
      [
        "i",
        "ately"
      ],
      [
        "l",
        "in"
      ],
      [
        "l",
        "ight"
      ],
      [
        "l",
        "ating"
      ],
      [
        "m",
        "ax"
      ],
      [
        "m",
        "ory"
      ],
      [
        "m",
        "ed"
      ],
      [
        "m",
        "ag"
      ],
      [
        "m",
        "ix"
      ],
      [
        "n",
        "ed"
      ],
      [
        "n",
        "ow"
      ],
      [
        "n",
        "ical"
      ],
      [
        "p",
        "se"
      ],
      [
        "p",
        "ot"
      ],
      [
        "p",
        "redicate"
      ],
      [
        "p",
        "resent"
      ],
      [
        "p",
        "ically"
      ],
      [
        "q",
        "we"
      ],
      [
        "r",
        "and"
      ],
      [
        "r",
        "ail"
      ],
      [
        "r",
        "ound"
      ],
      [
        "r",
        "are"
      ],
      [
        "r",
        "anges"
      ],
      [
        "r",
        "ather"
      ],
      [
        "t",
        "re"
      ],
      [
        "t",
        "ut"
      ],
      [
        "t",
        "urn"
      ],
      [
        "t",
        "end"
      ],
      [
        "u",
        "x"
      ],
      [
        "u",
        "nt"
      ],
      [
        "u",
        "ce"
      ],
      [
        "u",
        "do"
      ],
      [
        "v",
        "an"
      ],
      [
        "v",
        "ed"
      ],
      [
        "w",
        "as"
      ],
      [
        "—",
        "`@"
      ],
      [
        "in",
        "he"
      ],
      [
        "in",
        "ary"
      ],
      [
        "in",
        "variant"
      ],
      [
        "st",
        "atic"
      ],
      [
        "st",
        "ability"
      ],
      [
        "st",
        "ick"
      ],
      [
        "re",
        "ject"
      ],
      [
        "re",
        "ly"
      ],
      [
        "re",
        "fe"
      ],
      [
        "re",
        "used"
      ],
      [
        "re",
        "nce"
      ],
      [
        "re",
        "present"
      ],
      [
        "re",
        "qwe"
      ],
      [
        "er",
        "gonom"
      ],
      [
        "on",
        "Ch"
      ],
      [
        "on",
        "Cli"
      ],
      [
        "at",
        "s"
      ],
      [
        "at",
        "tr"
      ],
      [
        "at",
        "om"
      ],
      [
        "or",
        "ial"
      ],
      [
        "or",
        "ned"
      ],
      [
        "le",
        "ss"
      ],
      [
        "ct",
        "ate"
      ],
      [
        "ct",
        "ive"
      ],
      [
        "str",
        "ibut"
      ],
      [
        "de",
        "scri"
      ],
      [
        "de",
        "ter"
      ],
      [
        "de",
        "structur"
      ],
      [
        "de",
        "eper"
      ],
      [
        "al",
        "ity"
      ],
      [
        "an",
        "ge"
      ],
      [
        "an",
        "ch"
      ],
      [
        "an",
        "ces"
      ],
      [
        "it",
        "ions"
      ],
      [
        "ent",
        "ity"
      ],
      [
        "la",
        "st"
      ],
      [
        "to",
        "day"
      ],
      [
        "se",
        "am"
      ],
      [
        "se",
        "par"
      ],
      [
        "se",
        "nd"
      ],
      [
        "tra",
        "in"
      ],
      [
        "vi",
        "or"
      ],
      [
        "vi",
        "ce"
      ],
      [
        "ty",
        "pically"
      ],
      [
        "ar",
        "gument"
      ],
      [
        "pe",
        "ctive"
      ],
      [
        "ex",
        "tra"
      ],
      [
        "ex",
        "act"
      ],
      [
        "ser",
        "vers"
      ],
      [
        "ser",
        "vice"
      ],
      [
        "ad",
        "orned"
      ],
      [
        "the",
        "y"
      ],
      [
        "iv",
        "ate"
      ],
      [
        "sy",
        "ste"
      ],
      [
        "sy",
        "nchron"
      ],
      [
        "sy",
        "mb"
      ],
      [
        "sy",
        "nchronous"
      ],
      [
        "con",
        "struction"
      ],
      [
        "con",
        "clu"
      ],
      [
        "ch",
        "ine"
      ],
      [
        "ch",
        "nical"
      ],
      [
        "pro",
        "p"
      ],
      [
        "pro",
        "se"
      ],
      [
        "pro",
        "pa"
      ],
      [
        "ri",
        "ch"
      ],
      [
        "un",
        "pack"
      ],
      [
        "un",
        "ification"
      ],
      [
        "out",
        "bound"
      ],
      [
        "out",
        "put"
      ],
      [
        "ed",
        "ge"
      ],
      [
        "fi",
        "ll"
      ],
      [
        "ap",
        "pl"
      ],
      [
        "qu",
        "ali"
      ],
      [
        "Er",
        "r"
      ],
      [
        "res",
        "ort"
      ],
      [
        "res",
        "sed"
      ],
      [
        "en",
        "abl"
      ],
      [
        "en",
        "gine"
      ],
      [
        "il",
        "leg"
      ],
      [
        "up",
        "s"
      ],
      [
        "Res",
        "ources"
      ],
      [
        "po",
        "ss"
      ],
      [
        "li",
        "es"
      ],
      [
        "tal",
        "k"
      ],
      [
        "Ad",
        "van"
      ],
      [
        "mat",
        "ic"
      ],
      [
        "let",
        "e"
      ],
      [
        "dat",
        "ase"
      ],
      [
        "match",
        "es"
      ],
      [
        "Re",
        "f"
      ],
      [
        "De",
        "lete"
      ],
      [
        "com",
        "ma"
      ],
      [
        "our",
        "ages"
      ],
      [
        "mut",
        "ability"
      ],
      [
        "set",
        "up"
      ],
      [
        "mo",
        "re"
      ],
      [
        "state",
        "ment"
      ],
      [
        "par",
        "ses"
      ],
      [
        "par",
        "alle"
      ],
      [
        "im",
        "um"
      ],
      [
        "im",
        "mutable"
      ],
      [
        "im",
        "med"
      ],
      [
        "land",
        "s"
      ],
      [
        "Cre",
        "ates"
      ],
      [
        "sh",
        "ort"
      ],
      [
        "exp",
        "lore"
      ],
      [
        "exp",
        "ressed"
      ],
      [
        "Actor",
        "Ref"
      ],
      [
        "form",
        "ance"
      ],
      [
        "do",
        "main"
      ],
      [
        "result",
        "s"
      ],
      [
        "get",
        "Resources"
      ],
      [
        "sing",
        "le"
      ],
      [
        "fa",
        "ilable"
      ],
      [
        "ist",
        "ers"
      ],
      [
        "cre",
        "ate"
      ],
      [
        "ializ",
        "ed"
      ],
      [
        "br",
        "anch"
      ],
      [
        "pan",
        "ics"
      ],
      [
        "Ag",
        "gre"
      ],
      [
        "pers",
        "pective"
      ],
      [
        "ma",
        "chine"
      ],
      [
        "reser",
        "ved"
      ],
      [
        "sur",
        "round"
      ],
      [
        "bra",
        "ces"
      ],
      [
        "per",
        "formance"
      ],
      [
        "limit",
        "s"
      ],
      [
        "Work",
        "s"
      ],
      [
        "be",
        "ha"
      ],
      [
        "be",
        "cause"
      ],
      [
        "ord",
        "inary"
      ],
      [
        "keyword",
        "s"
      ],
      [
        "app",
        "lic"
      ],
      [
        "run",
        "s"
      ],
      [
        "add",
        "ing"
      ],
      [
        "gr",
        "ation"
      ],
      [
        "gr",
        "oup"
      ],
      [
        "di",
        "ctate"
      ],
      [
        "di",
        "stribut"
      ],
      [
        "order",
        "ing"
      ],
      [
        "prod",
        "uce"
      ],
      [
        "pr",
        "ivate"
      ],
      [
        "system",
        "d"
      ],
      [
        "test",
        "er"
      ],
      [
        "expose",
        "d"
      ],
      [
        "me",
        "tal"
      ],
      [
        "me",
        "mory"
      ],
      [
        "Ch",
        "ain"
      ],
      [
        "init",
        "ialized"
      ],
      [
        "Al",
        "so"
      ],
      [
        "by",
        "pass"
      ],
      [
        "cont",
        "ext"
      ],
      [
        "Th",
        "ese"
      ],
      [
        "pack",
        "age"
      ],
      [
        "brid",
        "ged"
      ],
      [
        "projection",
        "s"
      ],
      [
        "process",
        "es"
      ],
      [
        "role",
        "s"
      ],
      [
        "post",
        "ing"
      ],
      [
        "inte",
        "gration"
      ],
      [
        "ator",
        "s"
      ],
      [
        "ass",
        "ign"
      ],
      [
        "cond",
        "itions"
      ],
      [
        "back",
        "ed"
      ],
      [
        "wrap",
        "ped"
      ],
      [
        "guard",
        "s"
      ],
      [
        "guard",
        "rail"
      ],
      [
        "condition",
        "ally"
      ],
      [
        "pre",
        "fix"
      ],
      [
        "pre",
        "fer"
      ],
      [
        "ust",
        "er"
      ],
      [
        "fe",
        "el"
      ],
      [
        "ens",
        "ure"
      ],
      [
        "manifest",
        "s"
      ],
      [
        "LL",
        "VM"
      ],
      [
        "def",
        "ining"
      ],
      [
        "bin",
        "ary"
      ],
      [
        "trans",
        "form"
      ],
      [
        "trans",
        "lating"
      ],
      [
        "inf",
        "ers"
      ],
      [
        "ful",
        "fill"
      ],
      [
        "access",
        "ible"
      ],
      [
        "min",
        "es"
      ],
      [
        "ident",
        "ical"
      ],
      [
        "port",
        "s"
      ],
      [
        "..",
        "/"
      ],
      [
        "te",
        "chnical"
      ],
      [
        "spe",
        "ed"
      ],
      [
        "execut",
        "e"
      ],
      [
        "execut",
        "ed"
      ],
      [
        "rol",
        "led"
      ],
      [
        "enc",
        "ourages"
      ],
      [
        "cl",
        "uster"
      ],
      [
        "spec",
        "ify"
      ],
      [
        "inst",
        "ances"
      ],
      [
        "ho",
        "od"
      ],
      [
        "ry",
        "ing"
      ],
      [
        "check",
        "s"
      ],
      [
        "check",
        "point"
      ],
      [
        "fuzz",
        "er"
      ],
      [
        "built",
        "ins"
      ],
      [
        "proper",
        "ty"
      ],
      [
        "`//",
        "`."
      ],
      [
        "oc",
        "ation"
      ],
      [
        "sk",
        "etch"
      ],
      [
        "inclu",
        "des"
      ],
      [
        "comm",
        "and"
      ],
      [
        "permiss",
        "ions"
      ],
      [
        "inv",
        "ocation"
      ],
      [
        "look",
        "ups"
      ],
      [
        "cept",
        "s"
      ],
      [
        "mark",
        "ed"
      ],
      [
        "runn",
        "er"
      ],
      [
        "respon",
        "ses"
      ],
      [
        "`#",
        "`"
      ],
      [
        "opt",
        "imal"
      ],
      [
        "rel",
        "ated"
      ],
      [
        "rent",
        "ly"
      ],
      [
        "request",
        "s"
      ],
      [
        "exist",
        "s"
      ],
      [
        "resol",
        "ve"
      ],
      [
        "combin",
        "ators"
      ],
      [
        "hydr",
        "ated"
      ],
      [
        "instanti",
        "ate"
      ],
      [
        "hook",
        "s"
      ],
      [
        "namespa",
        "ced"
      ],
      [
        "sequenc",
        "es"
      ],
      [
        "](",
        "../"
      ],
      [
        "element",
        "s"
      ],
      [
        "pass",
        "es"
      ],
      [
        "su",
        "ch"
      ],
      [
        "su",
        "ffix"
      ],
      [
        "start",
        "er"
      ],
      [
        "ibut",
        "es"
      ],
      [
        "Reg",
        "iste"
      ],
      [
        "Reg",
        "isters"
      ],
      [
        "colle",
        "ction"
      ],
      [
        "colle",
        "ctions"
      ],
      [
        "AP",
        "I"
      ],
      [
        "Ac",
        "cepts"
      ],
      [
        "Blo",
        "ck"
      ],
      [
        "Co",
        "dex"
      ],
      [
        "Com",
        "ments"
      ],
      [
        "Gr",
        "oup"
      ],
      [
        "Is",
        "lands"
      ],
      [
        "Lin",
        "ux"
      ],
      [
        "Old",
        "er"
      ],
      [
        "Pre",
        "fix"
      ],
      [
        "Ra",
        "w"
      ],
      [
        "Sup",
        "pose"
      ],
      [
        "Sim",
        "ilar"
      ],
      [
        "Up",
        "date"
      ],
      [
        "Vari",
        "able"
      ],
      [
        "`](",
        "./"
      ],
      [
        "av",
        "ailable"
      ],
      [
        "car",
        "rying"
      ],
      [
        "dur",
        "ing"
      ],
      [
        "equ",
        "ality"
      ],
      [
        "follow",
        "ing"
      ],
      [
        "fron",
        "tend"
      ],
      [
        "hash",
        "ing"
      ],
      [
        "lin",
        "ers"
      ],
      [
        "light",
        "weight"
      ],
      [
        "max",
        "imum"
      ],
      [
        "mag",
        "ic"
      ],
      [
        "pse",
        "udo"
      ],
      [
        "pot",
        "entially"
      ],
      [
        "rand",
        "om"
      ],
      [
        "rare",
        "ly"
      ],
      [
        "tre",
        "ats"
      ],
      [
        "tut",
        "orial"
      ],
      [
        "turn",
        "ing"
      ],
      [
        "unt",
        "il"
      ],
      [
        "inhe",
        "rently"
      ],
      [
        "refe",
        "rence"
      ],
      [
        "represent",
        "ing"
      ],
      [
        "reqwe",
        "st"
      ],
      [
        "ergonom",
        "ic"
      ],
      [
        "onCh",
        "ange"
      ],
      [
        "onCli",
        "ck"
      ],
      [
        "attr",
        "ibutes"
      ],
      [
        "atom",
        "ic"
      ],
      [
        "less",
        "ly"
      ],
      [
        "descri",
        "be"
      ],
      [
        "deter",
        "mines"
      ],
      [
        "destructur",
        "ing"
      ],
      [
        "seam",
        "lessly"
      ],
      [
        "separ",
        "ated"
      ],
      [
        "syste",
        "matic"
      ],
      [
        "synchron",
        "ize"
      ],
      [
        "symb",
        "ol"
      ],
      [
        "synchronous",
        "ly"
      ],
      [
        "conclu",
        "des"
      ],
      [
        "propa",
        "gation"
      ],
      [
        "unpack",
        "s"
      ],
      [
        "output",
        "s"
      ],
      [
        "appl",
        "y"
      ],
      [
        "quali",
        "fied"
      ],
      [
        "enabl",
        "ing"
      ],
      [
        "illeg",
        "al"
      ],
      [
        "poss",
        "ible"
      ],
      [
        "Advan",
        "ced"
      ],
      [
        "datase",
        "ts"
      ],
      [
        "paralle",
        "l"
      ],
      [
        "immed",
        "iately"
      ],
      [
        "Aggre",
        "gation"
      ],
      [
        "surround",
        "ing"
      ],
      [
        "beha",
        "vior"
      ],
      [
        "applic",
        "ations"
      ],
      [
        "distribut",
        "ed"
      ],
      [
        "assign",
        "ments"
      ],
      [
        "guardrail",
        "s"
      ],
      [
        "sketch",
        "es"
      ],
      [
        "Registe",
        "red"
      ],
      [
        "pseudo",
        "code"
      ]
    ]
  }
}